{
  "version": "1.0",
  "truncation": null,
  "padding": null,
  "added_tokens": [
    {
      "id": 0,
      "content": "[UNK]",
      "single_word": false,
      "lstrip": false,
      "rstrip": false,
      "normalized": false,
      "special": true
    }
  ],
  "normalizer": {
    "type": "Sequence",
    "normalizers": [
      {
        "type": "Lowercase"
      },
      {
        "type": "NFD"
      }
    ]
  },
  "pre_tokenizer": {
    "type": "Whitespace"
  },
  "post_processor": null,
  "decoder": null,
  "model": {
    "type": "WordPiece",
    "unk_token": "[UNK]",
    "continuing_subword_prefix": "##",
    "max_input_chars_per_word": 100,
    "vocab": {
      "[UNK]": 0,
      "!": 1,
      "\"": 2,
      "#": 3,
      "$": 4,
      "%": 5,
      "&": 6,
      "'": 7,
      "(": 8,
      ")": 9,
      "*": 10,
      "+": 11,
      ",": 12,
      "-": 13,
      ".": 14,
      "/": 15,
      "0": 16,
      "1": 17,
      "2": 18,
      "3": 19,
      "4": 20,
      "5": 21,
      "6": 22,
      "7": 23,
      "8": 24,
      "9": 25,
      ":": 26,
      ";": 27,
      "=": 28,
      "?": 29,
      "@": 30,
      "[": 31,
      "\\": 32,
      "]": 33,
      "^": 34,
      "_": 35,
      "`": 36,
      "a": 37,
      "b": 38,
      "c": 39,
      "d": 40,
      "e": 41,
      "f": 42,
      "g": 43,
      "h": 44,
      "i": 45,
      "j": 46,
      "k": 47,
      "l": 48,
      "m": 49,
      "n": 50,
      "o": 51,
      "p": 52,
      "q": 53,
      "r": 54,
      "s": 55,
      "t": 56,
      "u": 57,
      "v": 58,
      "w": 59,
      "x": 60,
      "y": 61,
      "z": 62,
      "{": 63,
      "|": 64,
      "}": 65,
      "~": 66,
      "£": 67,
      "«": 68,
      "¬": 69,
      "°": 70,
      "´": 71,
      "»": 72,
      "œ": 73,
      "̀": 74,
      "́": 75,
      "̂": 76,
      "̃": 77,
      "̈": 78,
      "̌": 79,
      "̧": 80,
      "​": 81,
      "™": 82,
      "♥": 83,
      "♪": 84,
      "♫": 85,
      "ゃ": 86,
      "ㅎ": 87,
      "垣": 88,
      "新": 89,
      "##u": 90,
      "##r": 91,
      "##s": 92,
      "##t": 93,
      "##e": 94,
      "##́": 95,
      "##i": 96,
      "##p": 97,
      "##z": 98,
      "##g": 99,
      "##n": 100,
      "##k": 101,
      "##a": 102,
      "##o": 103,
      "##v": 104,
      "##c": 105,
      "##l": 106,
      "##f": 107,
      "##2": 108,
      "##̂": 109,
      "##d": 110,
      "##̧": 111,
      "##h": 112,
      "##q": 113,
      "##:": 114,
      "##w": 115,
      "##y": 116,
      "##m": 117,
      "##b": 118,
      "##7": 119,
      "##j": 120,
      "##6": 121,
      "##3": 122,
      "##8": 123,
      "##̀": 124,
      "##x": 125,
      "##.": 126,
      "##]": 127,
      "##1": 128,
      "##_": 129,
      "##0": 130,
      "##œ": 131,
      "##-": 132,
      "##)": 133,
      "##̃": 134,
      "##?": 135,
      "##,": 136,
      "##♥": 137,
      "##9": 138,
      "##5": 139,
      "##!": 140,
      "##(": 141,
      "##4": 142,
      "##;": 143,
      "##=": 144,
      "##*": 145,
      "##\"": 146,
      "##​": 147,
      "##̈": 148,
      "##'": 149,
      "##&": 150,
      "##´": 151,
      "##»": 152,
      "##~": 153,
      "##̌": 154,
      "##^": 155,
      "##[": 156,
      "##ㅎ": 157,
      "##%": 158,
      "##/": 159,
      "###": 160,
      "##}": 161,
      "##ou": 162,
      "##ai": 163,
      "##re": 164,
      "de": 165,
      "##nt": 166,
      "##er": 167,
      "##é": 168,
      "##on": 169,
      "##es": 170,
      "je": 171,
      "##en": 172,
      "##le": 173,
      "qu": 174,
      "##our": 175,
      "##is": 176,
      "pa": 177,
      "##me": 178,
      "##an": 179,
      "##ais": 180,
      "un": 181,
      "##oi": 182,
      "##eu": 183,
      "es": 184,
      "la": 185,
      "le": 186,
      "##..": 187,
      "que": 188,
      "##ous": 189,
      "##te": 190,
      "su": 191,
      "pas": 192,
      "à": 193,
      "est": 194,
      "ai": 195,
      "...": 196,
      "en": 197,
      "##ti": 198,
      "##us": 199,
      "##ment": 200,
      "##ve": 201,
      "et": 202,
      "##ant": 203,
      "##qu": 204,
      "vous": 205,
      "##or": 206,
      "pour": 207,
      "é": 208,
      "##lle": 209,
      "ma": 210,
      "##in": 211,
      "ce": 212,
      "au": 213,
      "ne": 214,
      "##it": 215,
      "##ie": 216,
      "me": 217,
      "##om": 218,
      "ch": 219,
      "##ll": 220,
      "les": 221,
      "##ar": 222,
      "##se": 223,
      "tr": 224,
      "##ne": 225,
      "il": 226,
      "##ait": 227,
      "##tre": 228,
      "re": 229,
      "mon": 230,
      "##ien": 231,
      "une": 232,
      "##au": 233,
      "##ch": 234,
      "##eux": 235,
      "##de": 236,
      "mais": 237,
      "suis": 238,
      "##oir": 239,
      "pl": 240,
      "##ans": 241,
      "dé": 242,
      "##mp": 243,
      "se": 244,
      "##ol": 245,
      "ét": 246,
      "com": 247,
      "te": 248,
      "##ce": 249,
      "##ro": 250,
      "##ci": 251,
      "##ri": 252,
      "##que": 253,
      "ave": 254,
      "##ui": 255,
      "tou": 256,
      "sur": 257,
      "des": 258,
      "##aire": 259,
      "##ge": 260,
      "si": 261,
      "##av": 262,
      "##ont": 263,
      "##̀re": 264,
      "##jour": 265,
      "par": 266,
      "##!!": 267,
      "##ir": 268,
      "##al": 269,
      "bon": 270,
      "##oo": 271,
      "jour": 272,
      "##ter": 273,
      "##end": 274,
      "dans": 275,
      "du": 276,
      "ê": 277,
      "##ons": 278,
      "##ra": 279,
      "av": 280,
      "##ee": 281,
      "avec": 282,
      "##si": 283,
      "##ée": 284,
      "##pp": 285,
      "moi": 286,
      "##ré": 287,
      "##am": 288,
      "##ble": 289,
      "##tes": 290,
      "plus": 291,
      "##ain": 292,
      "##os": 293,
      "##ois": 294,
      "##la": 295,
      "am": 296,
      "##at": 297,
      "##res": 298,
      "bien": 299,
      "##ot": 300,
      "trav": 301,
      "faire": 302,
      "mai": 303,
      "##eur": 304,
      "##rai": 305,
      "##and": 306,
      "##ati": 307,
      "##il": 308,
      "man": 309,
      "##ard": 310,
      "travai": 311,
      "##ouve": 312,
      "##ller": 313,
      "##as": 314,
      "##ah": 315,
      "##ens": 316,
      "tw": 317,
      "maint": 318,
      "##enant": 319,
      "être": 320,
      "maintenant": 321,
      "ou": 322,
      "ré": 323,
      "di": 324,
      "##ni": 325,
      "jus": 326,
      "pro": 327,
      "mer": 328,
      "##ers": 329,
      "##di": 330,
      "##co": 331,
      "tout": 332,
      "##̀s": 333,
      "mes": 334,
      "##llement": 335,
      "peu": 336,
      "fait": 337,
      "nous": 338,
      "##ille": 339,
      "tu": 340,
      "quel": 341,
      "##pe": 342,
      "##rès": 343,
      "hui": 344,
      "##̂t": 345,
      "aujour": 346,
      "aujourd": 347,
      "##ay": 348,
      "##ac": 349,
      "be": 350,
      "vo": 351,
      "vrai": 352,
      "##che": 353,
      "nouve": 354,
      "tellement": 355,
      "##̧a": 356,
      "ça": 357,
      "##ff": 358,
      "an": 359,
      "##age": 360,
      "##onn": 361,
      "!!!": 362,
      "heu": 363,
      "qui": 364,
      "##ure": 365,
      "##li": 366,
      "était": 367,
      "peux": 368,
      "##tt": 369,
      "vraiment": 370,
      "in": 371,
      "##ur": 372,
      "##ux": 373,
      "aime": 374,
      "reg": 375,
      "sem": 376,
      "merci": 377,
      "##ors": 378,
      "##oup": 379,
      "ex": 380,
      "lol": 381,
      "##ussi": 382,
      "ar": 383,
      "##née": 384,
      "##ouv": 385,
      "##tte": 386,
      "dev": 387,
      "##ag": 388,
      "##lé": 389,
      "##ent": 390,
      "##ez": 391,
      "##̂te": 392,
      "##uit": 393,
      "dem": 394,
      "mi": 395,
      "##op": 396,
      "##oin": 397,
      "!!": 398,
      "vais": 399,
      "aussi": 400,
      "##ww": 401,
      "app": 402,
      "travail": 403,
      "aller": 404,
      "sont": 405,
      "##ose": 406,
      "##ière": 407,
      "avoir": 408,
      "##oit": 409,
      "##uis": 410,
      "##endre": 411,
      "##itter": 412,
      "##mps": 413,
      "été": 414,
      "ser": 415,
      "##ue": 416,
      "pe": 417,
      "##onne": 418,
      "veux": 419,
      "##mer": 420,
      "##core": 421,
      "beau": 422,
      "oh": 423,
      "juste": 424,
      "##aine": 425,
      "##lement": 426,
      "##onc": 427,
      "votre": 428,
      "amp": 429,
      "encore": 430,
      "li": 431,
      "pre": 432,
      "co": 433,
      "##orm": 434,
      "comme": 435,
      "al": 436,
      "as": 437,
      "##ense": 438,
      "ils": 439,
      "##iens": 440,
      "va": 441,
      "##hh": 442,
      "##tin": 443,
      "twitter": 444,
      "temps": 445,
      "mal": 446,
      "regard": 447,
      "pense": 448,
      "att": 449,
      "maison": 450,
      "##ill": 451,
      "##able": 452,
      "##oy": 453,
      "##aa": 454,
      "##cu": 455,
      "##ient": 456,
      "##éri": 457,
      "tous": 458,
      "nouveau": 459,
      "journée": 460,
      "peut": 461,
      "hah": 462,
      "##ques": 463,
      "nuit": 464,
      "##ts": 465,
      "elle": 466,
      "##iste": 467,
      "autre": 468,
      "comp": 469,
      "bonne": 470,
      "##̂me": 471,
      "cette": 472,
      "avez": 473,
      "eu": 474,
      "oui": 475,
      "voir": 476,
      "très": 477,
      "##ner": 478,
      "ent": 479,
      "gé": 480,
      "toujour": 481,
      "toujours": 482,
      "##rais": 483,
      "ret": 484,
      "##dre": 485,
      "vi": 486,
      "trop": 487,
      "##sé": 488,
      "##enir": 489,
      "##ier": 490,
      "##ck": 491,
      "éc": 492,
      "heure": 493,
      "twee": 494,
      "##uv": 495,
      "##rer": 496,
      "der": 497,
      "quand": 498,
      "bes": 499,
      "fin": 500,
      "##ort": 501,
      "he": 502,
      "ici": 503,
      "pré": 504,
      "##ation": 505,
      "##ut": 506,
      "##coup": 507,
      "beaucoup": 508,
      "gr": 509,
      "st": 510,
      "jam": 511,
      "soir": 512,
      "besoin": 513,
      "##ph": 514,
      "##ôt": 515,
      "alors": 516,
      "mo": 517,
      "ca": 518,
      "##ct": 519,
      "cela": 520,
      "ob": 521,
      "sa": 522,
      "ess": 523,
      "##ité": 524,
      "res": 525,
      "même": 526,
      "demain": 527,
      "dés": 528,
      "sais": 529,
      "##ris": 530,
      "chose": 531,
      "ad": 532,
      "con": 533,
      "##mm": 534,
      "espe": 535,
      "ont": 536,
      "so": 537,
      "matin": 538,
      "viens": 539,
      "##élé": 540,
      "end": 541,
      "espère": 542,
      "##ine": 543,
      "là": 544,
      "sou": 545,
      "##pé": 546,
      "êtes": 547,
      "dois": 548,
      "##olé": 549,
      "##ique": 550,
      "##les": 551,
      "env": 552,
      "non": 553,
      "##ger": 554,
      "son": 555,
      "amus": 556,
      "télé": 557,
      "ap": 558,
      "##lo": 559,
      "quot": 560,
      "##tion": 561,
      "comment": 562,
      "dis": 563,
      "sens": 564,
      "jusqu": 565,
      "##té": 566,
      "triste": 567,
      "géni": 568,
      "cont": 569,
      "##ser": 570,
      "##nu": 571,
      "aimer": 572,
      "jamais": 573,
      "##gu": 574,
      "ac": 575,
      "pens": 576,
      "déj": 577,
      "##ance": 578,
      "##endant": 579,
      "fois": 580,
      "##cher": 581,
      "après": 582,
      "essay": 583,
      "vou": 584,
      "##ler": 585,
      "monde": 586,
      "ph": 587,
      "seu": 588,
      "##un": 589,
      "heures": 590,
      "##pa": 591,
      "désolé": 592,
      "per": 593,
      "puis": 594,
      "mar": 595,
      "semaine": 596,
      "haha": 597,
      "ha": 598,
      "##one": 599,
      "##quoi": 600,
      "pourquoi": 601,
      "##ing": 602,
      "##ert": 603,
      "retour": 604,
      "pers": 605,
      "##iez": 606,
      "regarder": 607,
      "dorm": 608,
      "che": 609,
      "sor": 610,
      "##és": 611,
      "fr": 612,
      "th": 613,
      "dit": 614,
      "##xx": 615,
      "##min": 616,
      "manque": 617,
      "all": 618,
      "dou": 619,
      "ter": 620,
      "manqu": 621,
      "##ord": 622,
      "cour": 623,
      "gar": 624,
      "fe": 625,
      "##um": 626,
      "##rait": 627,
      "détes": 628,
      "##eek": 629,
      "##pi": 630,
      "##anc": 631,
      "quelque": 632,
      "int": 633,
      "jours": 634,
      "obt": 635,
      "sui": 636,
      "som": 637,
      "##be": 638,
      "peti": 639,
      "génial": 640,
      "fil": 641,
      "vie": 642,
      "##out": 643,
      "##tir": 644,
      "##mes": 645,
      "##dé": 646,
      "meille": 647,
      "dire": 648,
      "##ion": 649,
      "cha": 650,
      "déteste": 651,
      "fati": 652,
      "week": 653,
      "##man": 654,
      "enf": 655,
      "sent": 656,
      "fais": 657,
      "##ic": 658,
      "no": 659,
      "pouv": 660,
      "##??": 661,
      "ennu": 662,
      "##ore": 663,
      "##00": 664,
      "rev": 665,
      "sh": 666,
      "##rit": 667,
      "aimerais": 668,
      "jou": 669,
      "ra": 670,
      "##sez": 671,
      "##oooo": 672,
      "##oses": 673,
      "dormir": 674,
      "##all": 675,
      "##oire": 676,
      "fatigu": 677,
      "##vre": 678,
      "##use": 679,
      "##ants": 680,
      "moment": 681,
      "ple": 682,
      "choses": 683,
      "##lis": 684,
      "##aux": 685,
      "bonjour": 686,
      "##mb": 687,
      "##phone": 688,
      "##per": 689,
      "imp": 690,
      "##ver": 691,
      "##enc": 692,
      "toute": 693,
      "travailler": 694,
      "donc": 695,
      "##nte": 696,
      "attendre": 697,
      "or": 698,
      "##̀me": 699,
      "deux": 700,
      "##tez": 701,
      "comm": 702,
      "##eurs": 703,
      "lon": 704,
      "##gn": 705,
      "##nière": 706,
      "##ow": 707,
      "mauv": 708,
      "semble": 709,
      "fatigué": 710,
      "mauvais": 711,
      "dernière": 712,
      "rien": 713,
      "##cole": 714,
      "quelqu": 715,
      "mieux": 716,
      "##̧on": 717,
      "jeu": 718,
      "mala": 719,
      "##lles": 720,
      "train": 721,
      "##du": 722,
      "école": 723,
      "réve": 724,
      "appe": 725,
      "hey": 726,
      "ab": 727,
      "bé": 728,
      "##ale": 729,
      "##ande": 730,
      "où": 731,
      "grand": 732,
      "mis": 733,
      "tard": 734,
      "##rr": 735,
      "phot": 736,
      "lit": 737,
      "parce": 738,
      "acc": 739,
      "aww": 740,
      "ces": 741,
      "##né": 742,
      "proch": 743,
      "cou": 744,
      "mé": 745,
      "sole": 746,
      "ennuy": 747,
      "sans": 748,
      "pren": 749,
      "soleil": 750,
      "##ire": 751,
      "sû": 752,
      "souh": 753,
      "film": 754,
      "sav": 755,
      "##fé": 756,
      "fa": 757,
      "lt": 758,
      "lais": 759,
      "supp": 760,
      "sera": 761,
      "heureux": 762,
      "car": 763,
      "##pon": 764,
      "trouv": 765,
      "avant": 766,
      "##oncti": 767,
      "malade": 768,
      "##vers": 769,
      "##ang": 770,
      "amis": 771,
      "amusant": 772,
      "meilleur": 773,
      "vient": 774,
      "bas": 775,
      "foncti": 776,
      "sal": 777,
      "##gh": 778,
      "##gne": 779,
      "##ad": 780,
      "##bli": 781,
      "..": 782,
      "fac": 783,
      "##vez": 784,
      "sûr": 785,
      "##illé": 786,
      "tweet": 787,
      "##ren": 788,
      "##sion": 789,
      "quelques": 790,
      "ro": 791,
      "##og": 792,
      "....": 793,
      "mère": 794,
      "soit": 795,
      "tôt": 796,
      "gra": 797,
      "pendant": 798,
      "uti": 799,
      "vu": 800,
      "vis": 801,
      "##th": 802,
      "##ds": 803,
      "##je": 804,
      "arri": 805,
      "voul": 806,
      "personne": 807,
      "##ul": 808,
      "##ii": 809,
      "tête": 810,
      "part": 811,
      "inc": 812,
      "petit": 813,
      "long": 814,
      "hier": 815,
      "on": 816,
      "##ns": 817,
      ".....": 818,
      "adore": 819,
      "toi": 820,
      "##alement": 821,
      "##fi": 822,
      "##mé": 823,
      "##bé": 824,
      "##inu": 825,
      "chau": 826,
      "étais": 827,
      "bient": 828,
      "poi": 829,
      "plu": 830,
      "ami": 831,
      "bientôt": 832,
      "cert": 833,
      "##enu": 834,
      "chans": 835,
      "##aines": 836,
      "ass": 837,
      "fête": 838,
      "##à": 839,
      "##der": 840,
      "##ys": 841,
      "##bre": 842,
      "##arde": 843,
      "ache": 844,
      "vos": 845,
      "##ran": 846,
      "##vent": 847,
      "diff": 848,
      "déjeu": 849,
      "déjà": 850,
      "gars": 851,
      "obtenir": 852,
      "mus": 853,
      "##gé": 854,
      "##roy": 855,
      "utilis": 856,
      "im": 857,
      "##vé": 858,
      "passé": 859,
      "dép": 860,
      "simp": 861,
      "##ouvez": 862,
      "seulement": 863,
      "façon": 864,
      "yay": 865,
      "##zz": 866,
      "chance": 867,
      "derni": 868,
      "moins": 869,
      "regarde": 870,
      "exc": 871,
      "prem": 872,
      "termin": 873,
      "gag": 874,
      "pu": 875,
      "##puis": 876,
      "air": 877,
      "mag": 878,
      "chev": 879,
      "##yy": 880,
      "##aite": 881,
      "avons": 882,
      "déjeuner": 883,
      "10": 884,
      "##ite": 885,
      "##mble": 886,
      "nouvelle": 887,
      "ta": 888,
      "##vis": 889,
      "##llez": 890,
      "##!!!!": 891,
      "##ations": 892,
      "##onner": 893,
      "cr": 894,
      "hom": 895,
      "pouvez": 896,
      "aucu": 897,
      "coup": 898,
      "fer": 899,
      "om": 900,
      "por": 901,
      "rou": 902,
      "##leur": 903,
      "##ppe": 904,
      "##ateur": 905,
      "##aha": 906,
      "téléphone": 907,
      "simplement": 908,
      "lui": 909,
      "vendre": 910,
      "aut": 911,
      "##aut": 912,
      "merde": 913,
      "sortir": 914,
      "##pide": 915,
      "bébé": 916,
      "doit": 917,
      "veu": 918,
      "##od": 919,
      "##ç": 920,
      "##ence": 921,
      "##euse": 922,
      "ok": 923,
      "pr": 924,
      "##tique": 925,
      "##ante": 926,
      "aux": 927,
      "##sent": 928,
      "rent": 929,
      "br": 930,
      "conn": 931,
      "gens": 932,
      "lun": 933,
      "##ss": 934,
      "##id": 935,
      "super": 936,
      "chez": 937,
      "répon": 938,
      "notre": 939,
      "pouvoir": 940,
      "ord": 941,
      "incroy": 942,
      "chanson": 943,
      "fre": 944,
      "assez": 945,
      "blo": 946,
      "tom": 947,
      "véri": 948,
      "##ke": 949,
      "##ab": 950,
      "##nts": 951,
      "##tement": 952,
      "rep": 953,
      "##pect": 954,
      "ins": 955,
      "omg": 956,
      "fille": 957,
      "ho": 958,
      "##cile": 959,
      "##aires": 960,
      "voy": 961,
      "ans": 962,
      "cool": 963,
      "envoy": 964,
      "pensais": 965,
      "dernier": 966,
      "lundi": 967,
      "cas": 968,
      "##aît": 969,
      "parler": 970,
      "amour": 971,
      "jouer": 972,
      "savoir": 973,
      "salut": 974,
      "pluie": 975,
      "##he": 976,
      "quoi": 977,
      "##ins": 978,
      "##rô": 979,
      "avais": 980,
      "##eeee": 981,
      "##rée": 982,
      "manger": 983,
      "prop": 984,
      "stu": 985,
      "##ances": 986,
      "vendredi": 987,
      "ordin": 988,
      "nom": 989,
      "##iller": 990,
      "##lez": 991,
      "cher": 992,
      "perdu": 993,
      "somme": 994,
      "cl": 995,
      "fra": 996,
      "id": 997,
      "voit": 998,
      "##nes": 999,
      "##ls": 1000,
      "##rez": 1001,
      "##oid": 1002,
      "passer": 1003,
      "##semble": 1004,
      "partir": 1005,
      "!!!!": 1006,
      "##aaaa": 1007,
      "inter": 1008,
      "bi": 1009,
      "bou": 1010,
      "eff": 1011,
      "pres": 1012,
      "##aient": 1013,
      "quelle": 1014,
      "étu": 1015,
      "##ros": 1016,
      "arre": 1017,
      "manqué": 1018,
      "trouver": 1019,
      "incroyable": 1020,
      "mont": 1021,
      "oc": 1022,
      "rend": 1023,
      "spect": 1024,
      "##ist": 1025,
      "##ments": 1026,
      "pourrais": 1027,
      "##las": 1028,
      "dieu": 1029,
      "année": 1030,
      "##onné": 1031,
      "père": 1032,
      "autres": 1033,
      "essayer": 1034,
      "accord": 1035,
      "chaud": 1036,
      "ordinateur": 1037,
      "spectac": 1038,
      "allez": 1039,
      "ses": 1040,
      "ver": 1041,
      "vers": 1042,
      "##gg": 1043,
      "##ces": 1044,
      "##enez": 1045,
      "pourrait": 1046,
      "##ché": 1047,
      "##nivers": 1048,
      "annivers": 1049,
      "prendre": 1050,
      "ag": 1051,
      "ah": 1052,
      "ni": 1053,
      "renc": 1054,
      "##vi": 1055,
      "suce": 1056,
      "##dez": 1057,
      "##hhh": 1058,
      "fonctionne": 1059,
      "anniversaire": 1060,
      "rencont": 1061,
      "pos": 1062,
      "sé": 1063,
      "soi": 1064,
      "ti": 1065,
      "##ps": 1066,
      "##oc": 1067,
      "allé": 1068,
      "sommes": 1069,
      "photo": 1070,
      "homme": 1071,
      "##par": 1072,
      "depuis": 1073,
      "mec": 1074,
      "char": 1075,
      "plaît": 1076,
      "parti": 1077,
      "vidé": 1078,
      "prépa": 1079,
      "prochaine": 1080,
      "cheveux": 1081,
      "voiture": 1082,
      "fou": 1083,
      "sau": 1084,
      "##uu": 1085,
      "##rons": 1086,
      "##ttre": 1087,
      "##aison": 1088,
      "##gent": 1089,
      "ouais": 1090,
      "exam": 1091,
      "##illes": 1092,
      "compte": 1093,
      "personn": 1094,
      "minu": 1095,
      "sc": 1096,
      "vent": 1097,
      "##ma": 1098,
      "##iè": 1099,
      "comb": 1100,
      "diman": 1101,
      "prof": 1102,
      "mign": 1103,
      "serai": 1104,
      "suppose": 1105,
      "##jet": 1106,
      "point": 1107,
      "hor": 1108,
      "lors": 1109,
      "mot": 1110,
      "sour": 1111,
      "ton": 1112,
      "ville": 1113,
      "##cé": 1114,
      "##ras": 1115,
      "##ats": 1116,
      "belle": 1117,
      "devrais": 1118,
      "##ages": 1119,
      "vérif": 1120,
      "presque": 1121,
      "dimanche": 1122,
      "cor": 1123,
      "tour": 1124,
      "xx": 1125,
      "##are": 1126,
      "##est": 1127,
      "##eure": 1128,
      "devoir": 1129,
      "attend": 1130,
      "froid": 1131,
      "manquer": 1132,
      "souhaite": 1133,
      "musique": 1134,
      "veut": 1135,
      "##rôle": 1136,
      "gt": 1137,
      "vé": 1138,
      "##sant": 1139,
      "##ber": 1140,
      "##éli": 1141,
      "espé": 1142,
      "mari": 1143,
      "##net": 1144,
      "##ains": 1145,
      "demande": 1146,
      "entre": 1147,
      "seul": 1148,
      "enfants": 1149,
      "voulais": 1150,
      "connais": 1151,
      "???": 1152,
      "eh": 1153,
      "for": 1154,
      "fam": 1155,
      "pi": 1156,
      "sp": 1157,
      "##ak": 1158,
      "##̂ner": 1159,
      "esp": 1160,
      "rê": 1161,
      "faites": 1162,
      "écou": 1163,
      "hab": 1164,
      "assis": 1165,
      "sommeil": 1166,
      "emb": 1167,
      "hu": 1168,
      "raison": 1169,
      "vac": 1170,
      "##ures": 1171,
      "##ies": 1172,
      "##fin": 1173,
      "passe": 1174,
      "aider": 1175,
      "##tions": 1176,
      "##char": 1177,
      "semaines": 1178,
      "diffi": 1179,
      "spectacle": 1180,
      "personnes": 1181,
      "da": 1182,
      "mois": 1183,
      "##ses": 1184,
      "##cie": 1185,
      "##dd": 1186,
      "##ley": 1187,
      "maman": 1188,
      "exce": 1189,
      "ligne": 1190,
      "prêt": 1191,
      "##usement": 1192,
      "réveillé": 1193,
      "cons": 1194,
      "port": 1195,
      "déc": 1196,
      "##nif": 1197,
      "malh": 1198,
      "hahaha": 1199,
      "suivre": 1200,
      "occu": 1201,
      "atte": 1202,
      "iphone": 1203,
      "po": 1204,
      "pris": 1205,
      "sy": 1206,
      "##riez": 1207,
      "##ace": 1208,
      "##ise": 1209,
      "déb": 1210,
      "##att": 1211,
      "entend": 1212,
      "entendre": 1213,
      "pleure": 1214,
      "commenc": 1215,
      "ba": 1216,
      "gu": 1217,
      "ju": 1218,
      "joy": 1219,
      "lu": 1220,
      "##tr": 1221,
      "##jou": 1222,
      "##....": 1223,
      "##iter": 1224,
      "oubli": 1225,
      "##ager": 1226,
      "regardant": 1227,
      "##érieur": 1228,
      "sorti": 1229,
      "##xxxx": 1230,
      "souhait": 1231,
      "drôle": 1232,
      "ga": 1233,
      "nu": 1234,
      "off": 1235,
      "pri": 1236,
      "##ox": 1237,
      "##des": 1238,
      "ens": 1239,
      "##qui": 1240,
      "##qué": 1241,
      "ép": 1242,
      "ég": 1243,
      "##dent": 1244,
      "##ook": 1245,
      "mess": 1246,
      "nouvelles": 1247,
      "appré": 1248,
      "tweets": 1249,
      "##riture": 1250,
      "rentrer": 1251,
      "frère": 1252,
      "malheure": 1253,
      "bri": 1254,
      "clas": 1255,
      "##ade": 1256,
      "site": 1257,
      "avait": 1258,
      "manques": 1259,
      "travaille": 1260,
      "!!!!!": 1261,
      "demand": 1262,
      "fini": 1263,
      "téléchar": 1264,
      "chaque": 1265,
      "enfin": 1266,
      "aucun": 1267,
      "bla": 1268,
      "cro": 1269,
      "nour": 1270,
      "ri": 1271,
      "venir": 1272,
      "##ème": 1273,
      "##ole": 1274,
      "##ves": 1275,
      "##fe": 1276,
      "##̂tre": 1277,
      "##omm": 1278,
      "nouveaux": 1279,
      "savez": 1280,
      "sentir": 1281,
      "réveiller": 1282,
      "acheter": 1283,
      "bure": 1284,
      "emp": 1285,
      "font": 1286,
      "gla": 1287,
      "##rie": 1288,
      "##nn": 1289,
      "##bu": 1290,
      "##ées": 1291,
      "chien": 1292,
      "##̂té": 1293,
      "argent": 1294,
      "devrait": 1295,
      "café": 1296,
      "content": 1297,
      "voulez": 1298,
      "photos": 1299,
      "ennuyé": 1300,
      "excité": 1301,
      "première": 1302,
      "frapp": 1303,
      "vidéo": 1304,
      "vacances": 1305,
      "leur": 1306,
      "séri": 1307,
      "##cti": 1308,
      "##mme": 1309,
      "##oure": 1310,
      "pauv": 1311,
      "toutes": 1312,
      "prob": 1313,
      "préfé": 1314,
      "reste": 1315,
      "voyage": 1316,
      "minutes": 1317,
      "famille": 1318,
      "excelle": 1319,
      "bureau": 1320,
      "ajou": 1321,
      "hist": 1322,
      "mor": 1323,
      "mort": 1324,
      "éle": 1325,
      "##rible": 1326,
      "proble": 1327,
      "chemin": 1328,
      "revenir": 1329,
      "étudi": 1330,
      "oublié": 1331,
      "aff": 1332,
      "boo": 1333,
      "ci": 1334,
      "conc": 1335,
      "dam": 1336,
      "faut": 1337,
      "hors": 1338,
      "jo": 1339,
      "soup": 1340,
      "vol": 1341,
      "vois": 1342,
      "we": 1343,
      "##ry": 1344,
      "##im": 1345,
      "##con": 1346,
      "uni": 1347,
      "chan": 1348,
      "écri": 1349,
      "essayé": 1350,
      "lorsque": 1351,
      "classe": 1352,
      "bais": 1353,
      "fai": 1354,
      "gri": 1355,
      "sous": 1356,
      "##mis": 1357,
      "##aie": 1358,
      "##ienne": 1359,
      "inf": 1360,
      "conf": 1361,
      "cond": 1362,
      "envir": 1363,
      "mise": 1364,
      "propos": 1365,
      "stupide": 1366,
      "mignon": 1367,
      "joyeux": 1368,
      "bu": 1369,
      "bar": 1370,
      "can": 1371,
      "dr": 1372,
      "goo": 1373,
      "sol": 1374,
      "souv": 1375,
      "tant": 1376,
      "​​": 1377,
      "##pendant": 1378,
      "sujet": 1379,
      "chat": 1380,
      "##ches": 1381,
      "##cieux": 1382,
      "##cial": 1383,
      "parf": 1384,
      "dîner": 1385,
      "lire": 1386,
      "rester": 1387,
      "##pace": 1388,
      "commence": 1389,
      "combien": 1390,
      "difficile": 1391,
      "malheureusement": 1392,
      "environ": 1393,
      "cré": 1394,
      "ge": 1395,
      "gros": 1396,
      "pou": 1397,
      "voi": 1398,
      "cependant": 1399,
      "##nez": 1400,
      "étaient": 1401,
      "##uite": 1402,
      "midi": 1403,
      "retard": 1404,
      "same": 1405,
      "impres": 1406,
      "##ght": 1407,
      "longue": 1408,
      "publi": 1409,
      "##vision": 1410,
      "croire": 1411,
      "idée": 1412,
      "nourriture": 1413,
      "probable": 1414,
      "jol": 1415,
      "lo": 1416,
      "sm": 1417,
      "woo": 1418,
      "##û": 1419,
      "##rière": 1420,
      "pay": 1421,
      "place": 1422,
      "##rier": 1423,
      "livre": 1424,
      "coll": 1425,
      "dites": 1426,
      "awww": 1427,
      "grat": 1428,
      "internet": 1429,
      "espérons": 1430,
      "dan": 1431,
      "jon": 1432,
      "ve": 1433,
      "wow": 1434,
      "pare": 1435,
      "##iel": 1436,
      "déli": 1437,
      "serait": 1438,
      "tweeter": 1439,
      "câ": 1440,
      "the": 1441,
      "thé": 1442,
      "cours": 1443,
      "arrive": 1444,
      "occupé": 1445,
      "crois": 1446,
      "probablement": 1447,
      "100": 1448,
      "?!": 1449,
      "cal": 1450,
      "cam": 1451,
      "cuis": 1452,
      "doi": 1453,
      "ip": 1454,
      "loin": 1455,
      "##gle": 1456,
      "##ction": 1457,
      "##ball": 1458,
      "##enue": 1459,
      "mettre": 1460,
      "trans": 1461,
      "liv": 1462,
      "colle": 1463,
      "envie": 1464,
      "douche": 1465,
      "trouvé": 1466,
      "blog": 1467,
      "habit": 1468,
      "histoire": 1469,
      "12": 1470,
      "11": 1471,
      "30": 1472,
      "filles": 1473,
      "gent": 1474,
      "hé": 1475,
      "vas": 1476,
      "wh": 1477,
      "##ta": 1478,
      "##ym": 1479,
      "##mment": 1480,
      "##ond": 1481,
      "aide": 1482,
      "aimé": 1483,
      "##iner": 1484,
      "remer": 1485,
      "tex": 1486,
      "##ales": 1487,
      "bons": 1488,
      "dû": 1489,
      "##rés": 1490,
      "nouvel": 1491,
      "aimez": 1492,
      "ext": 1493,
      "exp": 1494,
      "regardé": 1495,
      "ressemble": 1496,
      "penser": 1497,
      "doux": 1498,
      "petite": 1499,
      "rapide": 1500,
      "face": 1501,
      "##range": 1502,
      "premier": 1503,
      "##çu": 1504,
      "préparer": 1505,
      "devoirs": 1506,
      "pauvre": 1507,
      "samedi": 1508,
      ";)": 1509,
      "cre": 1510,
      "dont": 1511,
      "it": 1512,
      "pie": 1513,
      "ru": 1514,
      "##uck": 1515,
      "##ton": 1516,
      "##pit": 1517,
      "##cine": 1518,
      "##endez": 1519,
      "chant": 1520,
      "choc": 1521,
      "##llant": 1522,
      "plage": 1523,
      "sig": 1524,
      "##ray": 1525,
      "côté": 1526,
      "saison": 1527,
      "coucher": 1528,
      "laisser": 1529,
      "cassé": 1530,
      "portable": 1531,
      "symp": 1532,
      "at": 1533,
      "ade": 1534,
      "afin": 1535,
      "jal": 1536,
      "nos": 1537,
      "pire": 1538,
      "##ron": 1539,
      "##son": 1540,
      "##tant": 1541,
      "##ig": 1542,
      "##na": 1543,
      "##çon": 1544,
      "##̂ter": 1545,
      "##30": 1546,
      "##ail": 1547,
      "##lè": 1548,
      "##ourir": 1549,
      "éch": 1550,
      "cent": 1551,
      "##ney": 1552,
      "bonnes": 1553,
      "inv": 1554,
      "compren": 1555,
      "hehe": 1556,
      "camp": 1557,
      "continu": 1558,
      "essayant": 1559,
      "abs": 1560,
      "##rrrr": 1561,
      "prochain": 1562,
      "prom": 1563,
      "rencontrer": 1564,
      "attente": 1565,
      "commencé": 1566,
      "bl": 1567,
      "bat": 1568,
      "coin": 1569,
      "donne": 1570,
      "donner": 1571,
      "em": 1572,
      "my": 1573,
      "tre": 1574,
      "vont": 1575,
      "##ges": 1576,
      "##̂che": 1577,
      "##drais": 1578,
      "quitter": 1579,
      "##iné": 1580,
      "aurais": 1581,
      "dét": 1582,
      "##ooo": 1583,
      "##sible": 1584,
      "bienv": 1585,
      "##ili": 1586,
      "##mmm": 1587,
      "allons": 1588,
      "terminé": 1589,
      "aucune": 1590,
      "envoyer": 1591,
      "étudier": 1592,
      "20": 1593,
      "??": 1594,
      "bb": 1595,
      "ja": 1596,
      "mien": 1597,
      "pis": 1598,
      "spé": 1599,
      "test": 1600,
      "ye": 1601,
      "##ty": 1602,
      "##if": 1603,
      "##gra": 1604,
      "##cre": 1605,
      "##cit": 1606,
      "##land": 1607,
      "##rent": 1608,
      "##lent": 1609,
      "pan": 1610,
      "##ana": 1611,
      "##tent": 1612,
      "ensemble": 1613,
      "##quer": 1614,
      "math": 1615,
      "plan": 1616,
      "plais": 1617,
      "parc": 1618,
      "attendant": 1619,
      "géné": 1620,
      "finalement": 1621,
      "inté": 1622,
      "obtenu": 1623,
      "sho": 1624,
      "##oureux": 1625,
      "écrire": 1626,
      "bille": 1627,
      "cul": 1628,
      "fl": 1629,
      "fan": 1630,
      "féli": 1631,
      "né": 1632,
      "tot": 1633,
      "##cs": 1634,
      "##ca": 1635,
      "##cle": 1636,
      "##̂ne": 1637,
      "##mati": 1638,
      "##bi": 1639,
      "quit": 1640,
      "##temps": 1641,
      "suff": 1642,
      "##ines": 1643,
      "ment": 1644,
      "remp": 1645,
      "recher": 1646,
      "##cep": 1647,
      "##uire": 1648,
      "##astique": 1649,
      "peuvent": 1650,
      "devriez": 1651,
      "##uits": 1652,
      "star": 1653,
      "endorm": 1654,
      "suiv": 1655,
      "rappe": 1656,
      "mauvaise": 1657,
      "longtemps": 1658,
      "certains": 1659,
      "examen": 1660,
      "esprit": 1661,
      "ensole": 1662,
      "soupir": 1663,
      "ipod": 1664,
      "cu": 1665,
      "do": 1666,
      "fav": 1667,
      "form": 1668,
      "près": 1669,
      "to": 1670,
      "www": 1671,
      "##tout": 1672,
      "##ions": 1673,
      "##pris": 1674,
      "##bl": 1675,
      "##ork": 1676,
      "cet": 1677,
      "chi": 1678,
      "rec": 1679,
      "##olu": 1680,
      "surtout": 1681,
      "##sionn": 1682,
      "rés": 1683,
      "##ack": 1684,
      "présent": 1685,
      "essaie": 1686,
      "pensé": 1687,
      "puisse": 1688,
      "laissé": 1689,
      "mères": 1690,
      "visage": 1691,
      "brû": 1692,
      "tomber": 1693,
      "horrible": 1694,
      "pleurer": 1695,
      "prix": 1696,
      "message": 1697,
      "parents": 1698,
      "remercie": 1699,
      "adep": 1700,
      "##citations": 1701,
      "félicitations": 1702,
      "bois": 1703,
      "bris": 1704,
      "cra": 1705,
      "mys": 1706,
      "pous": 1707,
      "rée": 1708,
      "ty": 1709,
      "##tw": 1710,
      "##int": 1711,
      "##book": 1712,
      "##oux": 1713,
      "##let": 1714,
      "ques": 1715,
      "##iss": 1716,
      "papa": 1717,
      "cel": 1718,
      "nett": 1719,
      "##auche": 1720,
      "améri": 1721,
      "arti": 1722,
      "contin": 1723,
      "douleur": 1724,
      "garçon": 1725,
      "appelle": 1726,
      "certaine": 1727,
      "examens": 1728,
      "ventre": 1729,
      "##nifique": 1730,
      "entendu": 1731,
      "excellente": 1732,
      "web": 1733,
      "câl": 1734,
      "intéres": 1735,
      "nettoy": 1736,
      "15": 1737,
      "ahh": 1738,
      "boi": 1739,
      "dav": 1740,
      "fi": 1741,
      "fant": 1742,
      "gor": 1743,
      "ny": 1744,
      "xxx": 1745,
      "##ude": 1746,
      "##pt": 1747,
      "##plo": 1748,
      "##ka": 1749,
      "##ode": 1750,
      "##ly": 1751,
      "##lant": 1752,
      "##ha": 1753,
      "##isse": 1754,
      "##meur": 1755,
      "##uss": 1756,
      "##orte": 1757,
      "éti": 1758,
      "##ième": 1759,
      "étrange": 1760,
      "appare": 1761,
      "souff": 1762,
      "voudrais": 1763,
      "terre": 1764,
      "meilleure": 1765,
      "pouvais": 1766,
      "ennuyeux": 1767,
      "terminer": 1768,
      "magnifique": 1769,
      "porte": 1770,
      "##eusement": 1771,
      "chercher": 1772,
      "soirée": 1773,
      "rêves": 1774,
      "également": 1775,
      "télécharger": 1776,
      "délicieux": 1777,
      "gentil": 1778,
      "sympa": 1779,
      "recherche": 1780,
      "continue": 1781,
      "cli": 1782,
      "feu": 1783,
      "fort": 1784,
      "hum": 1785,
      "min": 1786,
      "na": 1787,
      "ps": 1788,
      "rendre": 1789,
      "ste": 1790,
      "vin": 1791,
      "venez": 1792,
      "you": 1793,
      "yout": 1794,
      "##uni": 1795,
      "##ny": 1796,
      "##da": 1797,
      "##dy": 1798,
      "##day": 1799,
      "##h30": 1800,
      "##ms": 1801,
      "##by": 1802,
      "##̀ne": 1803,
      "##este": 1804,
      "##euf": 1805,
      "aim": 1806,
      "##ori": 1807,
      "équi": 1808,
      "chanc": 1809,
      "##ars": 1810,
      "##iend": 1811,
      "mange": 1812,
      "!!!!!!!": 1813,
      "inqu": 1814,
      "compris": 1815,
      "##cks": 1816,
      "finale": 1817,
      "##ités": 1818,
      "perdre": 1819,
      "dormi": 1820,
      "femme": 1821,
      "obtenez": 1822,
      "appeler": 1823,
      "savais": 1824,
      "##iiii": 1825,
      "diffé": 1826,
      "vérifier": 1827,
      "problème": 1828,
      "grippe": 1829,
      "livres": 1830,
      "échou": 1831,
      "bienvenue": 1832,
      "adeptes": 1833,
      "myspace": 1834,
      "celui": 1835,
      "étiez": 1836,
      "youtu": 1837,
      "bo": 1838,
      "bis": 1839,
      "bal": 1840,
      "elles": 1841,
      "gym": 1842,
      "peur": 1843,
      "rose": 1844,
      "sang": 1845,
      "tes": 1846,
      "##roit": 1847,
      "##el": 1848,
      "##gie": 1849,
      "##ye": 1850,
      "##bum": 1851,
      "##éro": 1852,
      "##ours": 1853,
      "##orme": 1854,
      "cham": 1855,
      "trois": 1856,
      "dess": 1857,
      "dur": 1858,
      "##ath": 1859,
      "diplo": 1860,
      "profi": 1861,
      "ang": 1862,
      "ann": 1863,
      "annu": 1864,
      "demi": 1865,
      "##wwww": 1866,
      "peine": 1867,
      "endroit": 1868,
      "seule": 1869,
      "utiliser": 1870,
      "image": 1871,
      "gagné": 1872,
      "emball": 1873,
      "sérieusement": 1874,
      "élect": 1875,
      "extérieur": 1876,
      "chocol": 1877,
      "jaloux": 1878,
      "coincé": 1879,
      "certainement": 1880,
      "youtube": 1881,
      "chambre": 1882,
      "200": 1883,
      "aw": 1884,
      "ani": 1885,
      "bus": 1886,
      "bras": 1887,
      "cer": 1888,
      "dir": 1889,
      "dos": 1890,
      "er": 1891,
      "eau": 1892,
      "lis": 1893,
      "sait": 1894,
      "soy": 1895,
      "yeux": 1896,
      "##ki": 1897,
      "##cation": 1898,
      "##ft": 1899,
      "##bles": 1900,
      "deb": 1901,
      "devez": 1902,
      "##émati": 1903,
      "##orter": 1904,
      "##art": 1905,
      "##olog": 1906,
      "##rir": 1907,
      "##raph": 1908,
      "##réable": 1909,
      "améli": 1910,
      "##dio": 1911,
      "anc": 1912,
      "arrière": 1913,
      "##agne": 1914,
      "miley": 1915,
      "##aaa": 1916,
      "complè": 1917,
      "vite": 1918,
      "grande": 1919,
      "mardi": 1920,
      "course": 1921,
      "ennuie": 1922,
      "##oooooooo": 1923,
      "##mbre": 1924,
      "laissez": 1925,
      "meilleurs": 1926,
      "##ograph": 1927,
      "arrivé": 1928,
      "acheté": 1929,
      "gagner": 1930,
      "magas": 1931,
      "##ables": 1932,
      "effray": 1933,
      "arrête": 1934,
      "sourire": 1935,
      "attends": 1936,
      "écouter": 1937,
      "début": 1938,
      "juin": 1939,
      "glace": 1940,
      "damn": 1941,
      "doig": 1942,
      "centre": 1943,
      "mathémati": 1944,
      "suffit": 1945,
      "ensoleillé": 1946,
      "cous": 1947,
      "donné": 1948,
      "fau": 1949,
      "frais": 1950,
      "gard": 1951,
      "lé": 1952,
      "liste": 1953,
      "leurs": 1954,
      "ms": 1955,
      "op": 1956,
      "rav": 1957,
      "sac": 1958,
      "##iers": 1959,
      "##gue": 1960,
      "##ate": 1961,
      "##lais": 1962,
      "##dres": 1963,
      "##bs": 1964,
      "épuis": 1965,
      "##omp": 1966,
      "##llé": 1967,
      "tri": 1968,
      "##ience": 1969,
      "##chant": 1970,
      "déci": 1971,
      "parle": 1972,
      "##eee": 1973,
      "mangé": 1974,
      "##urs": 1975,
      "lieu": 1976,
      "album": 1977,
      "salle": 1978,
      "soeur": 1979,
      "marcher": 1980,
      "retourner": 1981,
      "intérieur": 1982,
      "champ": 1983,
      "revoir": 1984,
      "pleut": 1985,
      "appel": 1986,
      "abord": 1987,
      "accro": 1988,
      "rouge": 1989,
      "envoyé": 1990,
      "arrêter": 1991,
      "appréci": 1992,
      "##ctif": 1993,
      "préféré": 1994,
      "collè": 1995,
      "facebook": 1996,
      "absolu": 1997,
      "spécial": 1998,
      "chocolat": 1999,
      "act": 2000,
      "bum": 2001,
      "cri": 2002,
      "cop": 2003,
      "conne": 2004,
      "domm": 2005,
      "moy": 2006,
      "mourir": 2007,
      "norm": 2008,
      "sw": 2009,
      "sort": 2010,
      "##rant": 2011,
      "##sh": 2012,
      "##tv": 2013,
      "##et": 2014,
      "##nie": 2015,
      "##mar": 2016,
      "##̀mes": 2017,
      "##oupe": 2018,
      "##oût": 2019,
      "##oires": 2020,
      "lect": 2021,
      "##tié": 2022,
      "##tiques": 2023,
      "##uses": 2024,
      "new": 2025,
      "rej": 2026,
      "plut": 2027,
      "##oli": 2028,
      "##ront": 2029,
      "##gement": 2030,
      "##alis": 2031,
      "##alité": 2032,
      "##pping": 2033,
      "répa": 2034,
      "prod": 2035,
      "##ières": 2036,
      "##uel": 2037,
      "pensez": 2038,
      "##cul": 2039,
      "vieux": 2040,
      "écout": 2041,
      "dispar": 2042,
      "hâte": 2043,
      "##nées": 2044,
      "amusante": 2045,
      "regardez": 2046,
      "route": 2047,
      "réponse": 2048,
      "repos": 2049,
      "nombre": 2050,
      "agréable": 2051,
      "mots": 2052,
      "souhaiter": 2053,
      "baise": 2054,
      "faim": 2055,
      "parfois": 2056,
      "jonas": 2057,
      "signif": 2058,
      "plaisir": 2059,
      "totalement": 2060,
      "gorge": 2061,
      "équipe": 2062,
      "chanceux": 2063,
      "soyez": 2064,
      "absolument": 2065,
      "dommage": 2066,
      "plutôt": 2067,
      "18": 2068,
      "ali": 2069,
      "bra": 2070,
      "bande": 2071,
      "ceux": 2072,
      "gen": 2073,
      "har": 2074,
      "lil": 2075,
      "mc": 2076,
      "main": 2077,
      "neuf": 2078,
      "pai": 2079,
      "rire": 2080,
      "ugh": 2081,
      "xd": 2082,
      "##ume": 2083,
      "##ement": 2084,
      "##ign": 2085,
      "##gi": 2086,
      "##ach": 2087,
      "##lu": 2088,
      "##die": 2089,
      "deh": 2090,
      "##ess": 2091,
      "pap": 2092,
      "ait": 2093,
      "##vement": 2094,
      "##oris": 2095,
      "év": 2096,
      "éve": 2097,
      "aurait": 2098,
      "##lli": 2099,
      "##lla": 2100,
      "trouve": 2101,
      "sieste": 2102,
      "amoureux": 2103,
      "##raient": 2104,
      "rép": 2105,
      "devais": 2106,
      "appar": 2107,
      "appren": 2108,
      "serais": 2109,
      "prenez": 2110,
      "hahah": 2111,
      "groupe": 2112,
      "rest": 2113,
      "télévision": 2114,
      "##gues": 2115,
      "suivi": 2116,
      "enfer": 2117,
      "fonctionner": 2118,
      "dépla": 2119,
      "##yyyy": 2120,
      "profiter": 2121,
      "découv": 2122,
      "gâte": 2123,
      "épis": 2124,
      "google": 2125,
      "pouah": 2126,
      "shopping": 2127,
      "david": 2128,
      "apparemment": 2129,
      "doigts": 2130,
      "mathématiques": 2131,
      "signifie": 2132,
      "14": 2133,
      "bro": 2134,
      "col": 2135,
      "couv": 2136,
      "fo": 2137,
      "gre": 2138,
      "jard": 2139,
      "lou": 2140,
      "mmm": 2141,
      "ratt": 2142,
      "sis": 2143,
      "stre": 2144,
      "up": 2145,
      "venu": 2146,
      "##ttes": 2147,
      "##ide": 2148,
      "##ky": 2149,
      "##vie": 2150,
      "##cles": 2151,
      "##̂tes": 2152,
      "##mon": 2153,
      "##bes": 2154,
      "##ones": 2155,
      "jeux": 2156,
      "lever": 2157,
      "##tiv": 2158,
      "##veille": 2159,
      "##antes": 2160,
      "##itation": 2161,
      "##lly": 2162,
      "##mpe": 2163,
      "##rat": 2164,
      "##amb": 2165,
      "##ateurs": 2166,
      "##ots": 2167,
      "##ash": 2168,
      "##̂tements": 2169,
      "appli": 2170,
      "finir": 2171,
      "obti": 2172,
      "amusez": 2173,
      "marché": 2174,
      "manquant": 2175,
      "suivez": 2176,
      "chauss": 2177,
      "joue": 2178,
      "importe": 2179,
      "londres": 2180,
      "##ows": 2181,
      "appelé": 2182,
      "mises": 2183,
      "awwww": 2184,
      "films": 2185,
      "rock": 2186,
      "répondre": 2187,
      "soient": 2188,
      "écoute": 2189,
      "demander": 2190,
      "vêtements": 2191,
      "transf": 2192,
      "##ronique": 2193,
      "panne": 2194,
      "billets": 2195,
      "##prise": 2196,
      "boîte": 2197,
      "fantastique": 2198,
      "éveillé": 2199,
      "jardin": 2200,
      "rattra": 2201,
      "17": 2202,
      "ay": 2203,
      "aus": 2204,
      "ahhh": 2205,
      "bab": 2206,
      "dom": 2207,
      "eux": 2208,
      "fb": 2209,
      "fond": 2210,
      "ki": 2211,
      "lma": 2212,
      "nat": 2213,
      "num": 2214,
      "ore": 2215,
      "sant": 2216,
      "wi": 2217,
      "win": 2218,
      "##up": 2219,
      "##vert": 2220,
      "##cer": 2221,
      "##̂ce": 2222,
      "##̂pit": 2223,
      "##don": 2224,
      "##--": 2225,
      "##istes": 2226,
      "pant": 2227,
      "pass": 2228,
      "##ites": 2229,
      "rece": 2230,
      "reç": 2231,
      "déf": 2232,
      "sex": 2233,
      "secon": 2234,
      "commer": 2235,
      "tech": 2236,
      "##cent": 2237,
      "##uille": 2238,
      "##̀res": 2239,
      "##ralement": 2240,
      "##ress": 2241,
      "##ils": 2242,
      "manière": 2243,
      "réussi": 2244,
      "diri": 2245,
      "années": 2246,
      "regre": 2247,
      "essayez": 2248,
      "marche": 2249,
      "courrier": 2250,
      "senti": 2251,
      "pouvons": 2252,
      "moments": 2253,
      "impati": 2254,
      "jeudi": 2255,
      "prend": 2256,
      "visite": 2257,
      "arriver": 2258,
      "dépri": 2259,
      "##çons": 2260,
      "superbe": 2261,
      "hôpit": 2262,
      "rendu": 2263,
      "possible": 2264,
      "vélo": 2265,
      "offic": 2266,
      "!!!!!!": 2267,
      "frapper": 2268,
      "frappé": 2269,
      "impression": 2270,
      "love": 2271,
      "habitude": 2272,
      "profitez": 2273,
      "anim": 2274,
      "décidé": 2275,
      "â": 2276,
      "ban": 2277,
      "btw": 2278,
      "ciné": 2279,
      "gauche": 2280,
      "hmm": 2281,
      "idé": 2282,
      "lien": 2283,
      "ooo": 2284,
      "ren": 2285,
      "##rou": 2286,
      "##iques": 2287,
      "##kers": 2288,
      "##ap": 2289,
      "##of": 2290,
      "##cée": 2291,
      "##mor": 2292,
      "##33": 2293,
      "##éra": 2294,
      "##ene": 2295,
      "##lex": 2296,
      "##ange": 2297,
      "##oie": 2298,
      "lent": 2299,
      "sud": 2300,
      "passez": 2301,
      "##veau": 2302,
      "én": 2303,
      "éner": 2304,
      "chris": 2305,
      "##ari": 2306,
      "ref": 2307,
      "rela": 2308,
      "déçu": 2309,
      "##até": 2310,
      "##asse": 2311,
      "twit": 2312,
      "réuni": 2313,
      "merveille": 2314,
      "##ayl": 2315,
      "devons": 2316,
      "##oindre": 2317,
      "##hhhh": 2318,
      "attra": 2319,
      "écra": 2320,
      "cade": 2321,
      "doul": 2322,
      "fils": 2323,
      "chaleur": 2324,
      "##ication": 2325,
      "plein": 2326,
      "jeune": 2327,
      "##féren": 2328,
      "facile": 2329,
      "robe": 2330,
      "grâce": 2331,
      "......": 2332,
      "plupar": 2333,
      "certaines": 2334,
      "chansons": 2335,
      "imag": 2336,
      "porter": 2337,
      "##eeeeeeee": 2338,
      "propre": 2339,
      "client": 2340,
      "vérifiez": 2341,
      "tournée": 2342,
      "mariage": 2343,
      "?????": 2344,
      "pizz": 2345,
      "humeur": 2346,
      "base": 2347,
      "ensuite": 2348,
      "problèmes": 2349,
      "univers": 2350,
      "inform": 2351,
      "voix": 2352,
      "impressionn": 2353,
      "pied": 2354,
      "piscine": 2355,
      "anglais": 2356,
      "complètement": 2357,
      "garder": 2358,
      "ravi": 2359,
      "épuisé": 2360,
      "moyen": 2361,
      "dehors": 2362,
      "gâteau": 2363,
      "hôpital": 2364,
      "cinéma": 2365,
      "plupart": 2366,
      "!)": 2367,
      ").": 2368,
      "24": 2369,
      "alé": 2370,
      "boy": 2371,
      "bday": 2372,
      "cens": 2373,
      "ed": 2374,
      "four": 2375,
      "far": 2376,
      "fans": 2377,
      "go": 2378,
      "hi": 2379,
      "imm": 2380,
      "luv": 2381,
      "mtv": 2382,
      "noir": 2383,
      "piè": 2384,
      "roy": 2385,
      "sam": 2386,
      "ya": 2387,
      "##tri": 2388,
      "##ze": 2389,
      "##cur": 2390,
      "##̀ve": 2391,
      "##istre": 2392,
      "##mettre": 2393,
      "lar": 2394,
      "eng": 2395,
      "##tif": 2396,
      "##usse": 2397,
      "ceci": 2398,
      "##iellement": 2399,
      "ché": 2400,
      "chic": 2401,
      "monsi": 2402,
      "##cha": 2403,
      "parlé": 2404,
      "##terie": 2405,
      "##sions": 2406,
      "##ass": 2407,
      "##lier": 2408,
      "extre": 2409,
      "cole": 2410,
      "##illage": 2411,
      "prév": 2412,
      "stat": 2413,
      "amuser": 2414,
      "géniaux": 2415,
      "géniale": 2416,
      "pouvait": 2417,
      "reviens": 2418,
      "##ooooo": 2419,
      "##lise": 2420,
      "miss": 2421,
      "laisse": 2422,
      "##jets": 2423,
      "partager": 2424,
      "autom": 2425,
      "insc": 2426,
      "stupi": 2427,
      "##vice": 2428,
      "partie": 2429,
      "##........": 2430,
      "##xxxxxxxx": 2431,
      "empl": 2432,
      "excellent": 2433,
      "joh": 2434,
      "publier": 2435,
      "danse": 2436,
      "texte": 2437,
      "pieds": 2438,
      "bisous": 2439,
      "emballage": 2440,
      "électronique": 2441,
      "debout": 2442,
      "magasin": 2443,
      "lmao": 2444,
      "pantal": 2445,
      "aléat": 2446,
      "monsieur": 2447,
      "16": 2448,
      "19": 2449,
      "1er": 2450,
      "bout": 2451,
      "ball": 2452,
      "boire": 2453,
      "cy": 2454,
      "dar": 2455,
      "fu": 2456,
      "fuck": 2457,
      "han": 2458,
      "ir": 2459,
      "is": 2460,
      "idi": 2461,
      "ke": 2462,
      "ly": 2463,
      "nite": 2464,
      "pois": 2465,
      "poli": 2466,
      "ram": 2467,
      "rendez": 2468,
      "sin": 2469,
      "top": 2470,
      "tayl": 2471,
      "ur": 2472,
      "vir": 2473,
      "##ub": 2474,
      "##ieurs": 2475,
      "##pl": 2476,
      "##pir": 2477,
      "##zar": 2478,
      "##gistre": 2479,
      "##ao": 2480,
      "##vant": 2481,
      "##bo": 2482,
      "##aï": 2483,
      "##registre": 2484,
      "page": 2485,
      "##ane": 2486,
      "##...": 2487,
      "suit": 2488,
      "enregistre": 2489,
      "##tie": 2490,
      "émis": 2491,
      "mas": 2492,
      "mac": 2493,
      "##inaire": 2494,
      "aura": 2495,
      "chois": 2496,
      "tru": 2497,
      "reçu": 2498,
      "étonn": 2499,
      "tempe": 2500,
      "##cip": 2501,
      "sil": 2502,
      "##onte": 2503,
      "danser": 2504,
      "##eet": 2505,
      "plusieurs": 2506,
      "##osh": 2507,
      "amie": 2508,
      "##ott": 2509,
      "travers": 2510,
      "##ationne": 2511,
      "travaillez": 2512,
      "travaillant": 2513,
      "travaillé": 2514,
      "##ast": 2515,
      "prome": 2516,
      "##dition": 2517,
      "inqui": 2518,
      "devant": 2519,
      "apporter": 2520,
      "entrai": 2521,
      "via": 2522,
      "mode": 2523,
      "ador": 2524,
      "conse": 2525,
      "soci": 2526,
      "téléph": 2527,
      "disc": 2528,
      "disney": 2529,
      "pensant": 2530,
      "##unes": 2531,
      "frus": 2532,
      "from": 2533,
      "franc": 2534,
      "garçons": 2535,
      "suite": 2536,
      "aband": 2537,
      "ennuyant": 2538,
      "prends": 2539,
      "carte": 2540,
      "##ada": 2541,
      "certain": 2542,
      "##zzzz": 2543,
      "cheval": 2544,
      "ferai": 2545,
      "veulent": 2546,
      "##idable": 2547,
      "répondu": 2548,
      "monter": 2549,
      "##cess": 2550,
      "vidéos": 2551,
      "vente": 2552,
      "profil": 2553,
      "forme": 2554,
      "rêve": 2555,
      "date": 2556,
      "entends": 2557,
      "brillant": 2558,
      "sérieux": 2559,
      "ajoutez": 2560,
      "changer": 2561,
      "conduire": 2562,
      "joli": 2563,
      "payer": 2564,
      "cuisine": 2565,
      "formidable": 2566,
      "améric": 2567,
      "câlins": 2568,
      "intéressant": 2569,
      "cousin": 2570,
      "réunion": 2571,
      "pizza": 2572,
      "inquié": 2573,
      "),": 2574,
      "40": 2575,
      "50": 2576,
      "ben": 2577,
      "ble": 2578,
      "bah": 2579,
      "cd": 2580,
      "dra": 2581,
      "foo": 2582,
      "faux": 2583,
      "gah": 2584,
      "haut": 2585,
      "juille": 2586,
      "kris": 2587,
      "rac": 2588,
      "sat": 2589,
      "ten": 2590,
      "table": 2591,
      "ug": 2592,
      "vend": 2593,
      "vaut": 2594,
      "xox": 2595,
      "york": 2596,
      "##ru": 2597,
      "##rouv": 2598,
      "##sons": 2599,
      "##tch": 2600,
      "##igne": 2601,
      "##kk": 2602,
      "##lie": 2603,
      "##dows": 2604,
      "##hoo": 2605,
      "##ham": 2606,
      "##mi": 2607,
      "##̀te": 2608,
      "dent": 2609,
      "dès": 2610,
      "##éré": 2611,
      "pause": 2612,
      "paof": 2613,
      "##aise": 2614,
      "##ouse": 2615,
      "sus": 2616,
      "aurai": 2617,
      "##itaire": 2618,
      "##iet": 2619,
      "##omme": 2620,
      "tristes": 2621,
      "red": 2622,
      "reti": 2623,
      "##aume": 2624,
      "##oles": 2625,
      "tent": 2626,
      "##ciles": 2627,
      "##alie": 2628,
      "##ration": 2629,
      "avion": 2630,
      "moitié": 2631,
      "##asser": 2632,
      "oubl": 2633,
      "ouvert": 2634,
      "révision": 2635,
      "progra": 2636,
      "and": 2637,
      "exac": 2638,
      "art": 2639,
      "##ago": 2640,
      "service": 2641,
      "##uellement": 2642,
      "##cule": 2643,
      "entière": 2644,
      "écrit": 2645,
      "écran": 2646,
      "heureuse": 2647,
      "##uvi": 2648,
      "amusement": 2649,
      "discu": 2650,
      "contre": 2651,
      "acci": 2652,
      "terrible": 2653,
      "courir": 2654,
      "##0000": 2655,
      "joué": 2656,
      "réveille": 2657,
      "coupe": 2658,
      "mété": 2659,
      "rob": 2660,
      "##fié": 2661,
      "utilise": 2662,
      "derniers": 2663,
      "terminée": 2664,
      "bloqué": 2665,
      "##aaaaaaaa": 2666,
      "bizar": 2667,
      "verre": 2668,
      "charge": 2669,
      "prépare": 2670,
      "sauf": 2671,
      "##fini": 2672,
      "attent": 2673,
      "souhaitant": 2674,
      "église": 2675,
      "apprécie": 2676,
      "##ommand": 2677,
      "affaires": 2678,
      "good": 2679,
      "souvenir": 2680,
      "jolie": 2681,
      "crème": 2682,
      "comprendre": 2683,
      "promen": 2684,
      "généralement": 2685,
      "quitté": 2686,
      "menti": 2687,
      "##ception": 2688,
      "endormi": 2689,
      "brûlé": 2690,
      "question": 2691,
      "inquiet": 2692,
      "diplôme": 2693,
      "##ologie": 2694,
      "ancien": 2695,
      "écoutant": 2696,
      "souhaiterais": 2697,
      "numéro": 2698,
      "windows": 2699,
      "royaume": 2700,
      "##curité": 2701,
      "chérie": 2702,
      "juillet": 2703,
      "\".": 2704,
      "ber": 2705,
      "bac": 2706,
      "boit": 2707,
      "but": 2708,
      "bye": 2709,
      "cit": 2710,
      "célé": 2711,
      "dv": 2712,
      "dang": 2713,
      "gir": 2714,
      "gay": 2715,
      "hoo": 2716,
      "hun": 2717,
      "jack": 2718,
      "lin": 2719,
      "mili": 2720,
      "ner": 2721,
      "nor": 2722,
      "not": 2723,
      "pra": 2724,
      "rh": 2725,
      "sce": 2726,
      "soin": 2727,
      "tor": 2728,
      "ven": 2729,
      "vue": 2730,
      "wa": 2731,
      "##rs": 2732,
      "##port": 2733,
      "##gs": 2734,
      "##no": 2735,
      "##ks": 2736,
      "##aque": 2737,
      "##oré": 2738,
      "##fs": 2739,
      "##mée": 2740,
      "##bés": 2741,
      "##xi": 2742,
      "##xion": 2743,
      "##once": 2744,
      "##ish": 2745,
      "##oix": 2746,
      "##oite": 2747,
      "##euses": 2748,
      "laver": 2749,
      "lakers": 2750,
      "aidez": 2751,
      "ense": 2752,
      "##usé": 2753,
      "##velo": 2754,
      "mam": 2755,
      "##ith": 2756,
      "pluvi": 2757,
      "détr": 2758,
      "##cès": 2759,
      "##cier": 2760,
      "desc": 2761,
      "sims": 2762,
      "##ppy": 2763,
      "révis": 2764,
      "proche": 2765,
      "tuer": 2766,
      "votez": 2767,
      "expé": 2768,
      "devraient": 2769,
      "##lément": 2770,
      "mill": 2771,
      "lim": 2772,
      "asse": 2773,
      "compag": 2774,
      "##cke": 2775,
      "tweeps": 2776,
      "##uvoir": 2777,
      "sty": 2778,
      "cap": 2779,
      "perd": 2780,
      "puiss": 2781,
      "manquez": 2782,
      "##ancer": 2783,
      "direct": 2784,
      "faisait": 2785,
      "pleuvoir": 2786,
      "import": 2787,
      "org": 2788,
      "deuxième": 2789,
      "bébés": 2790,
      "grands": 2791,
      "couleur": 2792,
      "mél": 2793,
      "ennuyeuse": 2794,
      "##ranger": 2795,
      "utilisant": 2796,
      "gagne": 2797,
      "##!!!!!!!!": 2798,
      "prin": 2799,
      "freak": 2800,
      "instant": 2801,
      "frappe": 2802,
      "idk": 2803,
      "nick": 2804,
      "sécurité": 2805,
      "##uuuu": 2806,
      "minute": 2807,
      "##nettes": 2808,
      "guer": 2809,
      "gueu": 2810,
      "lunettes": 2811,
      "messages": 2812,
      "ajouter": 2813,
      "concert": 2814,
      "joe": 2815,
      "##conque": 2816,
      "droit": 2817,
      "droite": 2818,
      "gratuit": 2819,
      "caméra": 2820,
      "rapidement": 2821,
      "continuer": 2822,
      "endormir": 2823,
      "différent": 2824,
      "échouer": 2825,
      "réparer": 2826,
      "apprendre": 2827,
      "restau": 2828,
      "épisode": 2829,
      "chaussures": 2830,
      "reçois": 2831,
      "officiellement": 2832,
      "idées": 2833,
      "énorme": 2834,
      "chicago": 2835,
      "extrême": 2836,
      "colère": 2837,
      "idiot": 2838,
      "taylor": 2839,
      "trucs": 2840,
      "exactement": 2841,
      "bizarre": 2842,
      "céléb": 2843,
      "milieu": 2844,
      "''": 2845,
      "25": 2846,
      "bain": 2847,
      "bière": 2848,
      "batt": 2849,
      "cin": 2850,
      "hil": 2851,
      "len": 2852,
      "lang": 2853,
      "log": 2854,
      "méri": 2855,
      "ow": 2856,
      "pin": 2857,
      "péri": 2858,
      "pique": 2859,
      "raté": 2860,
      "sk": 2861,
      "sar": 2862,
      "sois": 2863,
      "uh": 2864,
      "vienne": 2865,
      "##ué": 2866,
      "##uré": 2867,
      "##rang": 2868,
      "##ia": 2869,
      "##pus": 2870,
      "##ga": 2871,
      "##nis": 2872,
      "##nah": 2873,
      "##ker": 2874,
      "##kin": 2875,
      "##az": 2876,
      "##oh": 2877,
      "##vo": 2878,
      "##lin": 2879,
      "##bri": 2880,
      "##ja": 2881,
      "##̀le": 2882,
      "##((": 2883,
      "##reur": 2884,
      "##reux": 2885,
      "qua": 2886,
      "##anger": 2887,
      "espace": 2888,
      "##tit": 2889,
      "chir": 2890,
      "chill": 2891,
      "déch": 2892,
      "dévelo": 2893,
      "serez": 2894,
      "état": 2895,
      "##quet": 2896,
      "##oss": 2897,
      "amen": 2898,
      "##atch": 2899,
      "##atique": 2900,
      "##ops": 2901,
      "##cupé": 2902,
      "hein": 2903,
      "sta": 2904,
      "cause": 2905,
      "congé": 2906,
      "commentaire": 2907,
      "commentaires": 2908,
      "contac": 2909,
      "sorte": 2910,
      "tho": 2911,
      "show": 2912,
      "rapp": 2913,
      "radio": 2914,
      "command": 2915,
      "méchant": 2916,
      "suppri": 2917,
      "chaude": 2918,
      "poids": 2919,
      "points": 2920,
      "assure": 2921,
      "ferais": 2922,
      "auto": 2923,
      "autour": 2924,
      "effe": 2925,
      "arrêt": 2926,
      "version": 2927,
      "agit": 2928,
      "sauve": 2929,
      "scol": 2930,
      "##iète": 2931,
      "souri": 2932,
      "##dddd": 2933,
      "demandé": 2934,
      "change": 2935,
      "confir": 2936,
      "souviens": 2937,
      "doivent": 2938,
      "chanter": 2939,
      "comprends": 2940,
      "japon": 2941,
      "yeah": 2942,
      "##issement": 2943,
      "connexion": 2944,
      "lecture": 2945,
      "paix": 2946,
      "couvert": 2947,
      "transform": 2948,
      "rattraper": 2949,
      "austr": 2950,
      "sexy": 2951,
      "animaux": 2952,
      "censé": 2953,
      "stupides": 2954,
      "fromage": 2955,
      "asseoir": 2956,
      "gueule": 2957,
      "chirur": 2958,
      "---": 2959,
      "13": 2960,
      "22": 2961,
      "ach": 2962,
      "alex": 2963,
      "din": 2964,
      "fes": 2965,
      "fli": 2966,
      "fut": 2967,
      "fiè": 2968,
      "guit": 2969,
      "hou": 2970,
      "honte": 2971,
      "mou": 2972,
      "pc": 2973,
      "pain": 2974,
      "ry": 2975,
      "ron": 2976,
      "rom": 2977,
      "souve": 2978,
      "sys": 2979,
      "tend": 2980,
      "val": 2981,
      "volé": 2982,
      "##ule": 2983,
      "##ral": 2984,
      "##rience": 2985,
      "##tter": 2986,
      "##ture": 2987,
      "##ip": 2988,
      "##ige": 2989,
      "##gée": 2990,
      "##nd": 2991,
      "##voir": 2992,
      "##cou": 2993,
      "##cal": 2994,
      "##ld": 2995,
      "##lée": 2996,
      "##̂ches": 2997,
      "##wi": 2998,
      "##mo": 2999,
      "##mf": 3000,
      "##my": 3001,
      "##mant": 3002,
      "##box": 3003,
      "##̀que": 3004,
      "##10": 3005,
      "##aille": 3006,
      "##ails": 3007,
      "##iser": 3008,
      "lève": 3009,
      "aimes": 3010,
      "aidé": 3011,
      "enc": 3012,
      "##tim": 3013,
      "pourriez": 3014,
      "##itant": 3015,
      "##omac": 3016,
      "chin": 3017,
      "##sey": 3018,
      "trai": 3019,
      "##tres": 3020,
      "##tré": 3021,
      "plait": 3022,
      "plans": 3023,
      "démé": 3024,
      "défini": 3025,
      "##quelle": 3026,
      "signe": 3027,
      "paris": 3028,
      "##rage": 3029,
      "##oté": 3030,
      "##othe": 3031,
      "rése": 3032,
      "récupé": 3033,
      "mercre": 3034,
      "tue": 3035,
      "##tttt": 3036,
      "argh": 3037,
      "##ague": 3038,
      "micha": 3039,
      "serv": 3040,
      "seront": 3041,
      "peint": 3042,
      "libre": 3043,
      "ash": 3044,
      "aspi": 3045,
      "##ting": 3046,
      "attendez": 3047,
      "##aaah": 3048,
      "compé": 3049,
      "euro": 3050,
      "retrouv": 3051,
      "vide": 3052,
      "derrière": 3053,
      "finales": 3054,
      "jambes": 3055,
      "ress": 3056,
      "##mmes": 3057,
      "amusé": 3058,
      "sensationne": 3059,
      "france": 3060,
      "thx": 3061,
      "courses": 3062,
      "sombre": 3063,
      "meilleures": 3064,
      "faisons": 3065,
      "revenu": 3066,
      "semblent": 3067,
      "méde": 3068,
      "suppos": 3069,
      "vouloir": 3070,
      "partout": 3071,
      "images": 3072,
      "hommes": 3073,
      "fera": 3074,
      "porcine": 3075,
      "envoyez": 3076,
      "club": 3077,
      "boute": 3078,
      "rencontré": 3079,
      "série": 3080,
      "corps": 3081,
      "espoir": 3082,
      "dame": 3083,
      "commencer": 3084,
      "lune": 3085,
      "null": 3086,
      "appréc": 3087,
      "##fère": 3088,
      "morce": 3089,
      "faible": 3090,
      "solitaire": 3091,
      "continuez": 3092,
      "batterie": 3093,
      "détendre": 3094,
      "parcourir": 3095,
      "doll": 3096,
      "recommand": 3097,
      "amérique": 3098,
      "inquiète": 3099,
      "annulé": 3100,
      "améliore": 3101,
      "arrêtez": 3102,
      "faute": 3103,
      "collège": 3104,
      "rejoindre": 3105,
      "appartement": 3106,
      "commercial": 3107,
      "impatience": 3108,
      "relax": 3109,
      "cadeau": 3110,
      "##férence": 3111,
      "???????": 3112,
      "université": 3113,
      "impressionnant": 3114,
      "inscri": 3115,
      "pantalons": 3116,
      "hannah": 3117,
      "émission": 3118,
      "discuter": 3119,
      "météo": 3120,
      "attention": 3121,
      "promenade": 3122,
      "boiteux": 3123,
      "scène": 3124,
      "expérience": 3125,
      "quatre": 3126,
      "souvent": 3127,
      "syste": 3128,
      "démén": 3129,
      "mercredi": 3130,
      "michael": 3131,
      "sensationnel": 3132,
      "'(": 3133,
      "000": 3134,
      "ant": 3135,
      "alle": 3136,
      "arai": 3137,
      "aise": 3138,
      "bre": 3139,
      "bord": 3140,
      "bad": 3141,
      "cos": 3142,
      "crai": 3143,
      "ciel": 3144,
      "dro": 3145,
      "fm": 3146,
      "fri": 3147,
      "fall": 3148,
      "fene": 3149,
      "gin": 3150,
      "honn": 3151,
      "hmmm": 3152,
      "hamb": 3153,
      "kar": 3154,
      "kate": 3155,
      "lum": 3156,
      "loc": 3157,
      "nav": 3158,
      "nord": 3159,
      "of": 3160,
      "pé": 3161,
      "pee": 3162,
      "pot": 3163,
      "sit": 3164,
      "soo": 3165,
      "sand": 3166,
      "sors": 3167,
      "tenir": 3168,
      "##rus": 3169,
      "##tall": 3170,
      "##tball": 3171,
      "##ple": 3172,
      "##go": 3173,
      "##gles": 3174,
      "##nisse": 3175,
      "##ool": 3176,
      "##vin": 3177,
      "##veux": 3178,
      "##cin": 3179,
      "##cations": 3180,
      "##lon": 3181,
      "##̂n": 3182,
      "##̂cher": 3183,
      "##̂mes": 3184,
      "##̂ché": 3185,
      "##heur": 3186,
      "##we": 3187,
      "##moire": 3188,
      "##bus": 3189,
      "##?!": 3190,
      "##air": 3191,
      "dents": 3192,
      "##onom": 3193,
      "##issez": 3194,
      "##issant": 3195,
      "paress": 3196,
      "##mè": 3197,
      "##oint": 3198,
      "##oide": 3199,
      "laquelle": 3200,
      "sucre": 3201,
      "estomac": 3202,
      "##tition": 3203,
      "##anter": 3204,
      "##ormer": 3205,
      "##orts": 3206,
      "éte": 3207,
      "étions": 3208,
      "maux": 3209,
      "##inez": 3210,
      "nez": 3211,
      "neige": 3212,
      "chats": 3213,
      "choix": 3214,
      "##llo": 3215,
      "remar": 3216,
      "déce": 3217,
      "##olf": 3218,
      "tee": 3219,
      "##rions": 3220,
      "##uitement": 3221,
      "##gère": 3222,
      "sign": 3223,
      "parlez": 3224,
      "pardon": 3225,
      "##ala": 3226,
      "bonheur": 3227,
      "dure": 3228,
      "##sique": 3229,
      "##là": 3230,
      "##respon": 3231,
      "##ottes": 3232,
      "travaux": 3233,
      "##ards": 3234,
      "out": 3235,
      "rég": 3236,
      "répé": 3237,
      "##night": 3238,
      "projet": 3239,
      "projets": 3240,
      "##dia": 3241,
      "voter": 3242,
      "vôtre": 3243,
      "##onnés": 3244,
      "##agé": 3245,
      "miam": 3246,
      "##oph": 3247,
      "allerg": 3248,
      "beaux": 3249,
      "##culier": 3250,
      "nuits": 3251,
      "vip": 3252,
      "vivre": 3253,
      "économ": 3254,
      "tweeté": 3255,
      "##orté": 3256,
      "##cteur": 3257,
      "ressent": 3258,
      "adoré": 3259,
      "soft": 3260,
      "##null": 3261,
      "haw": 3262,
      "garde": 3263,
      "petits": 3264,
      "abonnés": 3265,
      "bénisse": 3266,
      "grandes": 3267,
      "mémoire": 3268,
      "supplément": 3269,
      "fonctionn": 3270,
      "fonctionné": 3271,
      "visiter": 3272,
      "##ult": 3273,
      "music": 3274,
      "utilisez": 3275,
      "couper": 3276,
      "autant": 3277,
      "##odes": 3278,
      "bron": 3279,
      "##sss": 3280,
      "vérifié": 3281,
      "repren": 3282,
      "bibli": 3283,
      "bouche": 3284,
      "spectacles": 3285,
      "rencontre": 3286,
      "posté": 3287,
      "particulier": 3288,
      "foudre": 3289,
      "science": 3290,
      "mignonne": 3291,
      "correspon": 3292,
      "demandez": 3293,
      "entreprise": 3294,
      "##akes": 3295,
      "débar": 3296,
      "sortie": 3297,
      "blague": 3298,
      "empe": 3299,
      "préférée": 3300,
      "élevé": 3301,
      "concer": 3302,
      "voler": 3303,
      "poulet": 3304,
      "payez": 3305,
      "gratuitement": 3306,
      "cuisiner": 3307,
      "##taller": 3308,
      "invité": 3309,
      "tremble": 3310,
      "##bile": 3311,
      "rappelle": 3312,
      "résult": 3313,
      "boisson": 3314,
      "brisé": 3315,
      "réel": 3316,
      "questions": 3317,
      "article": 3318,
      "articles": 3319,
      "câlin": 3320,
      "nettoyer": 3321,
      "troisième": 3322,
      "diplô": 3323,
      "annonce": 3324,
      "2009": 3325,
      "dirais": 3326,
      "effrayé": 3327,
      "disparu": 3328,
      "découvrir": 3329,
      "folle": 3330,
      "stress": 3331,
      "##view": 3332,
      "santé": 3333,
      "dirige": 3334,
      "sentiment": 3335,
      "merveilleux": 3336,
      "douloureux": 3337,
      "pièce": 3338,
      "prévu": 3339,
      "emploi": 3340,
      "john": 3341,
      "darn": 3342,
      "##piration": 3343,
      "tempête": 3344,
      "frustré": 3345,
      "franç": 3346,
      "oubliez": 3347,
      "accident": 3348,
      "mamans": 3349,
      "réviser": 3350,
      "hilar": 3351,
      "période": 3352,
      "fièvre": 3353,
      "guitare": 3354,
      "définiti": 3355,
      "bouteille": 3356,
      "dollars": 3357,
      "fenêtre": 3358,
      "hambur": 3359,
      "softball": 3360,
      "(:": 3361,
      ",,": 3362,
      ":]": 3363,
      "aa": 3364,
      "adi": 3365,
      "août": 3366,
      "bg": 3367,
      "bos": 3368,
      "cœ": 3369,
      "croy": 3370,
      "cook": 3371,
      "crier": 3372,
      "day": 3373,
      "el": 3374,
      "gl": 3375,
      "goût": 3376,
      "her": 3377,
      "iran": 3378,
      "jb": 3379,
      "ky": 3380,
      "kit": 3381,
      "lmf": 3382,
      "mu": 3383,
      "mr": 3384,
      "meur": 3385,
      "mû": 3386,
      "os": 3387,
      "pop": 3388,
      "pier": 3389,
      "put": 3390,
      "ppl": 3391,
      "sai": 3392,
      "siè": 3393,
      "tonner": 3394,
      "us": 3395,
      "vert": 3396,
      "voté": 3397,
      "wii": 3398,
      "work": 3399,
      "##uy": 3400,
      "##uer": 3401,
      "##roid": 3402,
      "##rari": 3403,
      "##tn": 3404,
      "##tar": 3405,
      "##tro": 3406,
      "##ible": 3407,
      "##idé": 3408,
      "##pes": 3409,
      "##gers": 3410,
      "##gner": 3411,
      "##nx": 3412,
      "##âtre": 3413,
      "##fic": 3414,
      "##̂ch": 3415,
      "##den": 3416,
      "##dge": 3417,
      "##dra": 3418,
      "##wn": 3419,
      "##way": 3420,
      "##mont": 3421,
      "##ba": 3422,
      "##bres": 3423,
      "##**": 3424,
      "##aîne": 3425,
      "##été": 3426,
      "##ision": 3427,
      "##issent": 3428,
      "##istiques": 3429,
      "pays": 3430,
      "##med": 3431,
      "##ank": 3432,
      "lente": 3433,
      "##teau": 3434,
      "sup": 3435,
      "suc": 3436,
      "passionn": 3437,
      "##usion": 3438,
      "éche": 3439,
      "match": 3440,
      "##its": 3441,
      "mel": 3442,
      "##omb": 3443,
      "cho": 3444,
      "chéri": 3445,
      "chante": 3446,
      "##arti": 3447,
      "trom": 3448,
      "reli": 3449,
      "états": 3450,
      "##ric": 3451,
      "##quez": 3452,
      "surprise": 3453,
      "##tern": 3454,
      "dun": 3455,
      "##sil": 3456,
      "##sier": 3457,
      "##sition": 3458,
      "##amé": 3459,
      "ambi": 3460,
      "##anda": 3461,
      "##ilo": 3462,
      "réser": 3463,
      "diable": 3464,
      "##action": 3465,
      "##agez": 3466,
      "ind": 3467,
      "indi": 3468,
      "devient": 3469,
      "ohhh": 3470,
      "##illy": 3471,
      "vict": 3472,
      "##ortable": 3473,
      "préfère": 3474,
      "gris": 3475,
      "obli": 3476,
      "resse": 3477,
      "adam": 3478,
      "conce": 3479,
      "envoi": 3480,
      "##tér": 3481,
      "accep": 3482,
      "perme": 3483,
      "retourne": 3484,
      "froide": 3485,
      "suivent": 3486,
      "enfant": 3487,
      "notes": 3488,
      "##ritable": 3489,
      "impos": 3490,
      "##own": 3491,
      "prochaines": 3492,
      "médi": 3493,
      "prenant": 3494,
      "##irez": 3495,
      "fabu": 3496,
      "salade": 3497,
      "##gnez": 3498,
      "grad": 3499,
      "voulu": 3500,
      "voulait": 3501,
      "##iii": 3502,
      "ongles": 3503,
      "##fiant": 3504,
      "gagn": 3505,
      "magie": 3506,
      "##leurs": 3507,
      "autoris": 3508,
      "##ides": 3509,
      "bloc": 3510,
      "hôte": 3511,
      "voyager": 3512,
      "étude": 3513,
      "pères": 3514,
      "tim": 3515,
      "souris": 3516,
      "tony": 3517,
      "vérification": 3518,
      "corre": 3519,
      "végé": 3520,
      "forte": 3521,
      "forum": 3522,
      "spam": 3523,
      "embar": 3524,
      "embras": 3525,
      "huer": 3526,
      "épau": 3527,
      "frères": 3528,
      "glacée": 3529,
      "##bucks": 3530,
      "pauvres": 3531,
      "ajouté": 3532,
      "canada": 3533,
      "parfait": 3534,
      "parfaite": 3535,
      "crépus": 3536,
      "colline": 3537,
      "théâtre": 3538,
      "texas": 3539,
      "email": 3540,
      "bbq": 3541,
      "planif": 3542,
      "billet": 3543,
      "réellement": 3544,
      "type": 3545,
      "nyc": 3546,
      "souffle": 3547,
      "différe": 3548,
      "boom": 3549,
      "annonc": 3550,
      "cerveau": 3551,
      "erreur": 3552,
      "##ographe": 3553,
      "apprécié": 3554,
      "collègues": 3555,
      "copie": 3556,
      "papier": 3557,
      "louis": 3558,
      "kick": 3559,
      "techn": 3560,
      "regretter": 3561,
      "âge": 3562,
      "oooh": 3563,
      "clients": 3564,
      "baseball": 3565,
      "larmes": 3566,
      "politique": 3567,
      "conseils": 3568,
      "téléphones": 3569,
      "bleu": 3570,
      "dentiste": 3571,
      "programme": 3572,
      "rhume": 3573,
      "pluvieux": 3574,
      "compagnie": 3575,
      "puissiez": 3576,
      "chillin": 3577,
      "japonais": 3578,
      "chirurgie": 3579,
      "festiv": 3580,
      "##othèque": 3581,
      "serveur": 3582,
      "ressens": 3583,
      "système": 3584,
      "allem": 3585,
      "honneur": 3586,
      "paresseux": 3587,
      "supplémentaires": 3588,
      "définitivement": 3589,
      "fabule": 3590,
      "\",": 3591,
      "21": 3592,
      "3g": 3593,
      "3ème": 3594,
      "80": 3595,
      ";.": 3596,
      "aéro": 3597,
      "b4": 3598,
      "bour": 3599,
      "bré": 3600,
      "bff": 3601,
      "bles": 3602,
      "brit": 3603,
      "bran": 3604,
      "coi": 3605,
      "cir": 3606,
      "cand": 3607,
      "dm": 3608,
      "dj": 3609,
      "fol": 3610,
      "gm": 3611,
      "gon": 3612,
      "ges": 3613,
      "gun": 3614,
      "goooo": 3615,
      "hal": 3616,
      "hot": 3617,
      "ill": 3618,
      "jay": 3619,
      "joie": 3620,
      "ko": 3621,
      "ken": 3622,
      "mour": 3623,
      "nah": 3624,
      "nique": 3625,
      "noooo": 3626,
      "nul": 3627,
      "niè": 3628,
      "nager": 3629,
      "ora": 3630,
      "oise": 3631,
      "pom": 3632,
      "pont": 3633,
      "pose": 3634,
      "sl": 3635,
      "tx": 3636,
      "tar": 3637,
      "tat": 3638,
      "tort": 3639,
      "tale": 3640,
      "umm": 3641,
      "van": 3642,
      "vom": 3643,
      "viend": 3644,
      "wt": 3645,
      "yes": 3646,
      "yah": 3647,
      "zoo": 3648,
      "##rité": 3649,
      "##teur": 3650,
      "##ep": 3651,
      "##inte": 3652,
      "##pée": 3653,
      "##gés": 3654,
      "##grés": 3655,
      "##nol": 3656,
      "##ase": 3657,
      "##osition": 3658,
      "##vée": 3659,
      "##cy": 3660,
      "##cte": 3661,
      "##car": 3662,
      "##cter": 3663,
      "##los": 3664,
      "##lande": 3665,
      "##fl": 3666,
      "##fly": 3667,
      "##̂le": 3668,
      "##̀ge": 3669,
      "##11": 3670,
      "##aître": 3671,
      "##éder": 3672,
      "jen": 3673,
      "jeunes": 3674,
      "qualité": 3675,
      "pal": 3676,
      "##ano": 3677,
      "uns": 3678,
      "lap": 3679,
      "lac": 3680,
      "##tien": 3681,
      "##tinée": 3682,
      "etc": 3683,
      "éd": 3684,
      "édition": 3685,
      "matt": 3686,
      "matinée": 3687,
      "##indre": 3688,
      "chiens": 3689,
      "chaîne": 3690,
      "##llow": 3691,
      "##ara": 3692,
      "tra": 3693,
      "tran": 3694,
      "##nel": 3695,
      "##nent": 3696,
      "##dem": 3697,
      "pls": 3698,
      "plz": 3699,
      "plac": 3700,
      "dég": 3701,
      "déranger": 3702,
      "##cemment": 3703,
      "##celet": 3704,
      "##ciale": 3705,
      "survi": 3706,
      "##get": 3707,
      "pars": 3708,
      "para": 3709,
      "bonb": 3710,
      "##ood": 3711,
      "##onses": 3712,
      "##ppin": 3713,
      "amy": 3714,
      "##ator": 3715,
      "##ative": 3716,
      "##ahaha": 3717,
      "ouver": 3718,
      "réception": 3719,
      "récemment": 3720,
      "##dictif": 3721,
      "tué": 3722,
      "belles": 3723,
      "##chez": 3724,
      "##ffre": 3725,
      "anne": 3726,
      "arbre": 3727,
      "apple": 3728,
      "appro": 3729,
      "##uelle": 3730,
      "entré": 3731,
      "entrer": 3732,
      "entrée": 3733,
      "écla": 3734,
      "écriture": 3735,
      "heureusement": 3736,
      "heh": 3737,
      "jambe": 3738,
      "##ctu": 3739,
      "adres": 3740,
      "conférence": 3741,
      "soupe": 3742,
      "envoie": 3743,
      "dist": 3744,
      "disant": 3745,
      "discip": 3746,
      "contrôle": 3747,
      "pho": 3748,
      "fruits": 3749,
      "than": 3750,
      "doute": 3751,
      "term": 3752,
      "manquons": 3753,
      "court": 3754,
      "courant": 3755,
      "femmes": 3756,
      "vieille": 3757,
      "faisais": 3758,
      "faisant": 3759,
      "reviend": 3760,
      "##mbres": 3761,
      "##mbler": 3762,
      "##ences": 3763,
      "commun": 3764,
      "##gnes": 3765,
      "mauvaises": 3766,
      "accue": 3767,
      "cessé": 3768,
      "fave": 3769,
      "cartes": 3770,
      "baske": 3771,
      "##ades": 3772,
      "##jectif": 3773,
      "arrivent": 3774,
      "partis": 3775,
      "achetez": 3776,
      "utilisé": 3777,
      "tâches": 3778,
      "coups": 3779,
      "fermé": 3780,
      "repas": 3781,
      "##rôles": 3782,
      "interview": 3783,
      "boule": 3784,
      "études": 3785,
      "incroyablement": 3786,
      "##ggg": 3787,
      "niveau": 3788,
      "time": 3789,
      "profess": 3790,
      "tonite": 3791,
      "vétér": 3792,
      "véritable": 3793,
      "difficiles": 3794,
      "consul": 3795,
      "considé": 3796,
      "téléchargement": 3797,
      "black": 3798,
      "##nnn": 3799,
      "affamé": 3800,
      "concours": 3801,
      "public": 3802,
      "woohoo": 3803,
      "flux": 3804,
      "starbucks": 3805,
      "briser": 3806,
      "pouss": 3807,
      "typ": 3808,
      "ahhhh": 3809,
      "psy": 3810,
      "dessus": 3811,
      "lisez": 3812,
      "amélio": 3813,
      "effrayant": 3814,
      "légère": 3815,
      "msn": 3816,
      "apprécier": 3817,
      "bummer": 3818,
      "bummed": 3819,
      "copain": 3820,
      "normalement": 3821,
      "aliment": 3822,
      "bracelet": 3823,
      "genre": 3824,
      "papas": 3825,
      "réponses": 3826,
      "hahahaha": 3827,
      "application": 3828,
      "applications": 3829,
      "ayez": 3830,
      "baby": 3831,
      "oreilles": 3832,
      "wifi": 3833,
      "passée": 3834,
      "écrasé": 3835,
      "imaginer": 3836,
      "informations": 3837,
      "aléatoire": 3838,
      "aléatoires": 3839,
      "kevin": 3840,
      "poissons": 3841,
      "sinon": 3842,
      "adorable": 3843,
      "société": 3844,
      "discussi": 3845,
      "inquiétez": 3846,
      "ughhh": 3847,
      "dvd": 3848,
      "nerveux": 3849,
      "pratique": 3850,
      "style": 3851,
      "important": 3852,
      "restaurant": 3853,
      "langue": 3854,
      "viennent": 3855,
      "contact": 3856,
      "ryan": 3857,
      "chinois": 3858,
      "appréciez": 3859,
      "allergies": 3860,
      "bibliothèque": 3861,
      "débarras": 3862,
      "meurt": 3863,
      "mûre": 3864,
      "putain": 3865,
      "tonnerre": 3866,
      "ambiance": 3867,
      "impossible": 3868,
      "épaule": 3869,
      "allemagne": 3870,
      "aéroport": 3871,
      "brésil": 3872,
      "vétérinaire": 3873,
      "!?": 3874,
      "()": 3875,
      "00": 3876,
      "09": 3877,
      "23": 3878,
      "2ème": 3879,
      "45": 3880,
      "4ème": 3881,
      "?)": 3882,
      "af": 3883,
      "bt": 3884,
      "bai": 3885,
      "bit": 3886,
      "bir": 3887,
      "bang": 3888,
      "bottes": 3889,
      "cauche": 3890,
      "céré": 3891,
      "drôles": 3892,
      "ec": 3893,
      "fous": 3894,
      "frai": 3895,
      "fire": 3896,
      "fuite": 3897,
      "gi": 3898,
      "gou": 3899,
      "gro": 3900,
      "glis": 3901,
      "hy": 3902,
      "hau": 3903,
      "hur": 3904,
      "honne": 3905,
      "imb": 3906,
      "ji": 3907,
      "jes": 3908,
      "josh": 3909,
      "lv": 3910,
      "lait": 3911,
      "mm": 3912,
      "mul": 3913,
      "mmmm": 3914,
      "ooh": 3915,
      "oops": 3916,
      "pn": 3917,
      "pit": 3918,
      "poo": 3919,
      "piste": 3920,
      "san": 3921,
      "sooo": 3922,
      "tv": 3923,
      "tm": 3924,
      "tir": 3925,
      "tal": 3926,
      "tas": 3927,
      "um": 3928,
      "ummm": 3929,
      "vague": 3930,
      "war": 3931,
      "will": 3932,
      "word": 3933,
      "wid": 3934,
      "watch": 3935,
      "xbox": 3936,
      "yog": 3937,
      "zut": 3938,
      "».": 3939,
      "##une": 3940,
      "##uation": 3941,
      "##rain": 3942,
      "##st": 3943,
      "##ster": 3944,
      "##tu": 3945,
      "##to": 3946,
      "##ten": 3947,
      "##tal": 3948,
      "##tences": 3949,
      "##ed": 3950,
      "##ère": 3951,
      "##ption": 3952,
      "##gan": 3953,
      "##gnée": 3954,
      "##nui": 3955,
      "##ning": 3956,
      "##kes": 3957,
      "##ax": 3958,
      "##va": 3959,
      "##vue": 3960,
      "##cro": 3961,
      "##len": 3962,
      "##fie": 3963,
      "##flé": 3964,
      "##fox": 3965,
      "##hi": 3966,
      "##her": 3967,
      "##ya": 3968,
      "##mation": 3969,
      "##bb": 3970,
      "##bby": 3971,
      "degrés": 3972,
      "##ong": 3973,
      "##eni": 3974,
      "##enaire": 3975,
      "##any": 3976,
      "lady": 3977,
      "lee": 3978,
      "lettre": 3979,
      "aient": 3980,
      "ennui": 3981,
      "##ties": 3982,
      "##orie": 3983,
      "épi": 3984,
      "évé": 3985,
      "maj": 3986,
      "mach": 3987,
      "cell": 3988,
      "mex": 3989,
      "chu": 3990,
      "chim": 3991,
      "##llée": 3992,
      "try": 3993,
      "trou": 3994,
      "trouvez": 3995,
      "traite": 3996,
      "dém": 3997,
      "dérange": 3998,
      "dérang": 3999,
      "##mpé": 4000,
      "secre": 4001,
      "secou": 4002,
      "étant": 4003,
      "tel": 4004,
      "##rome": 4005,
      "avère": 4006,
      "surpris": 4007,
      "sim": 4008,
      "paroles": 4009,
      "##aler": 4010,
      "##endu": 4011,
      "##rass": 4012,
      "avenir": 4013,
      "##ama": 4014,
      "mail": 4015,
      "ouest": 4016,
      "réalis": 4017,
      "régi": 4018,
      "##nique": 4019,
      "justin": 4020,
      "tur": 4021,
      "beigne": 4022,
      "vote": 4023,
      "##chel": 4024,
      "quiconque": 4025,
      "##liqué": 4026,
      "deviens": 4027,
      "##oing": 4028,
      "##www": 4029,
      "atta": 4030,
      "comptes": 4031,
      "gérer": 4032,
      "##cky": 4033,
      "grrr": 4034,
      "grrrrr": 4035,
      "mobile": 4036,
      "cacher": 4037,
      "objectif": 4038,
      "désol": 4039,
      "conv": 4040,
      "convers": 4041,
      "confi": 4042,
      "concent": 4043,
      "envis": 4044,
      "envers": 4045,
      "song": 4046,
      "sonore": 4047,
      "amusants": 4048,
      "disque": 4049,
      "disent": 4050,
      "distri": 4051,
      "contrari": 4052,
      "action": 4053,
      "pensées": 4054,
      "happy": 4055,
      "##ington": 4056,
      "thnx": 4057,
      "allée": 4058,
      "double": 4059,
      "##outant": 4060,
      "sentant": 4061,
      "sentent": 4062,
      "##ica": 4063,
      "note": 4064,
      "shi": 4065,
      "sha": 4066,
      "jouant": 4067,
      "pleuré": 4068,
      "impri": 4069,
      "malades": 4070,
      "appeller": 4071,
      "heyy": 4072,
      "photograph": 4073,
      "accomp": 4074,
      "prochains": 4075,
      "sûre": 4076,
      "fabri": 4077,
      "##versé": 4078,
      "##ads": 4079,
      "##adis": 4080,
      "personnel": 4081,
      "partenaire": 4082,
      ".........": 4083,
      "dépend": 4084,
      "départ": 4085,
      "excuse": 4086,
      "excitant": 4087,
      "cru": 4088,
      "ferme": 4089,
      "porc": 4090,
      "prie": 4091,
      "priez": 4092,
      "rentre": 4093,
      "répondez": 4094,
      "tomb": 4095,
      "tombé": 4096,
      "sommet": 4097,
      "big": 4098,
      "effet": 4099,
      "arrêté": 4100,
      "monté": 4101,
      "montana": 4102,
      "aha": 4103,
      "ahaha": 4104,
      "night": 4105,
      "sauter": 4106,
      "mignons": 4107,
      "horri": 4108,
      "horaire": 4109,
      "corri": 4110,
      "vécu": 4111,
      "connaiss": 4112,
      "????": 4113,
      "spl": 4114,
      "dave": 4115,
      "occupée": 4116,
      "bâ": 4117,
      "nulle": 4118,
      "nuages": 4119,
      "brill": 4120,
      "empru": 4121,
      "##riel": 4122,
      "##ctivement": 4123,
      "##oureuse": 4124,
      "morte": 4125,
      "affe": 4126,
      "changement": 4127,
      "baisé": 4128,
      "confortable": 4129,
      "créé": 4130,
      "créati": 4131,
      "voici": 4132,
      "woot": 4133,
      "collines": 4134,
      "gratuits": 4135,
      "câble": 4136,
      "héros": 4137,
      "whoo": 4138,
      "bonsoir": 4139,
      "sympath": 4140,
      "jalouse": 4141,
      "promis": 4142,
      "blanc": 4143,
      "donnez": 4144,
      "détails": 4145,
      "##graph": 4146,
      "nég": 4147,
      "nécess": 4148,
      "quitte": 4149,
      "remplie": 4150,
      "suivant": 4151,
      "esprits": 4152,
      "favoris": 4153,
      "poussé": 4154,
      "réelle": 4155,
      "nettoyage": 4156,
      "fich": 4157,
      "cliquez": 4158,
      "steph": 4159,
      "aimais": 4160,
      "échoué": 4161,
      "bisc": 4162,
      "dessin": 4163,
      "magasins": 4164,
      "crié": 4165,
      "sweet": 4166,
      "produit": 4167,
      "nombreuses": 4168,
      "genou": 4169,
      "mcfly": 4170,
      "épisodes": 4171,
      "##rateur": 4172,
      "recevoir": 4173,
      "second": 4174,
      "seconde": 4175,
      "impatient": 4176,
      "énergie": 4177,
      "imma": 4178,
      "cyrus": 4179,
      "irrit": 4180,
      "entraîne": 4181,
      "abandonné": 4182,
      "américaine": 4183,
      "football": 4184,
      "xoxo": 4185,
      "million": 4186,
      "##ckey": 4187,
      "freakin": 4188,
      "guerre": 4189,
      "différentes": 4190,
      "lendem": 4191,
      "logic": 4192,
      "##wich": 4193,
      "réseau": 4194,
      "ashley": 4195,
      "compétences": 4196,
      "retrouvé": 4197,
      "médecin": 4198,
      "inscrire": 4199,
      "lumière": 4200,
      "navig": 4201,
      "remarqué": 4202,
      "répétition": 4203,
      "musicale": 4204,
      "tremblement": 4205,
      "résultats": 4206,
      "diplômé": 4207,
      "français": 4208,
      "cœur": 4209,
      "lmfao": 4210,
      "échec": 4211,
      "végétar": 4212,
      "crépuscule": 4213,
      "technologie": 4214,
      "festival": 4215,
      "folie": 4216,
      "gmail": 4217,
      "orages": 4218,
      "talent": 4219,
      "disciples": 4220,
      "thanx": 4221,
      "termine": 4222,
      "professeur": 4223,
      "typique": 4224,
      "psych": 4225,
      "imbé": 4226,
      "événe": 4227,
      "régime": 4228,
      "beignets": 4229,
      "contrarié": 4230,
      "emprunt": 4231,
      "lendemain": 4232,
      "::": 4233,
      "^^": 4234,
      "az": 4235,
      "ara": 4236,
      "bf": 4237,
      "bav": 4238,
      "band": 4239,
      "bow": 4240,
      "card": 4241,
      "cancer": 4242,
      "dc": 4243,
      "don": 4244,
      "dac": 4245,
      "donn": 4246,
      "dod": 4247,
      "ep": 4248,
      "ff": 4249,
      "fro": 4250,
      "fier": 4251,
      "fleurs": 4252,
      "gau": 4253,
      "gee": 4254,
      "gas": 4255,
      "geek": 4256,
      "gomme": 4257,
      "hol": 4258,
      "hard": 4259,
      "haine": 4260,
      "haï": 4261,
      "ira": 4262,
      "ivre": 4263,
      "jau": 4264,
      "jim": 4265,
      "kard": 4266,
      "kid": 4267,
      "kim": 4268,
      "look": 4269,
      "men": 4270,
      "mir": 4271,
      "mil": 4272,
      "mur": 4273,
      "mors": 4274,
      "mienne": 4275,
      "miel": 4276,
      "nan": 4277,
      "nam": 4278,
      "nad": 4279,
      "ori": 4280,
      "opé": 4281,
      "poit": 4282,
      "pun": 4283,
      "pow": 4284,
      "roi": 4285,
      "rand": 4286,
      "ras": 4287,
      "ray": 4288,
      "rue": 4289,
      "russe": 4290,
      "ranger": 4291,
      "ross": 4292,
      "té": 4293,
      "tis": 4294,
      "tau": 4295,
      "tré": 4296,
      "wan": 4297,
      "woooo": 4298,
      "xo": 4299,
      "xxxxx": 4300,
      "yu": 4301,
      "yi": 4302,
      "zone": 4303,
      "œil": 4304,
      "##ua": 4305,
      "##uti": 4306,
      "##rom": 4307,
      "##tab": 4308,
      "##pte": 4309,
      "##press": 4310,
      "##gment": 4311,
      "##gui": 4312,
      "##gge": 4313,
      "##nal": 4314,
      "##nsi": 4315,
      "##oa": 4316,
      "##ob": 4317,
      "##oti": 4318,
      "##oque": 4319,
      "##vres": 4320,
      "##ctement": 4321,
      "##cakes": 4322,
      "##lt": 4323,
      "##lir": 4324,
      "##ling": 4325,
      "##fg": 4326,
      "##dr": 4327,
      "##dis": 4328,
      "##dans": 4329,
      "##dney": 4330,
      "##ho": 4331,
      "##wa": 4332,
      "##ward": 4333,
      "##weet": 4334,
      "##wood": 4335,
      "##yn": 4336,
      "##bour": 4337,
      "##bor": 4338,
      "##bra": 4339,
      "##bur": 4340,
      "##jus": 4341,
      "##ouff": 4342,
      "##aii": 4343,
      "den": 4344,
      "def": 4345,
      "dedans": 4346,
      "##era": 4347,
      "##erai": 4348,
      "##ony": 4349,
      "jeter": 4350,
      "##isation": 4351,
      "##mène": 4352,
      "##anch": 4353,
      "##oï": 4354,
      "##oignez": 4355,
      "laure": 4356,
      "sujets": 4357,
      "aie": 4358,
      "ainsi": 4359,
      "##vège": 4360,
      "##quant": 4361,
      "##quillage": 4362,
      "##orité": 4363,
      "##orld": 4364,
      "él": 4365,
      "étique": 4366,
      "mara": 4367,
      "mass": 4368,
      "maquillage": 4369,
      "##ink": 4370,
      "##ina": 4371,
      "auriez": 4372,
      "net": 4373,
      "neil": 4374,
      "##iture": 4375,
      "chang": 4376,
      "chasse": 4377,
      "chaise": 4378,
      "chrome": 4379,
      "##aron": 4380,
      "##sente": 4381,
      "trait": 4382,
      "##nelle": 4383,
      "remb": 4384,
      "##cheux": 4385,
      "##deck": 4386,
      "dési": 4387,
      "dépe": 4388,
      "sept": 4389,
      "seign": 4390,
      "étoi": 4391,
      "étonné": 4392,
      "comman": 4393,
      "##cement": 4394,
      "##quel": 4395,
      "##uil": 4396,
      "toux": 4397,
      "toucher": 4398,
      "six": 4399,
      "park": 4400,
      "paran": 4401,
      "parie": 4402,
      "parlant": 4403,
      "paradis": 4404,
      "##ali": 4405,
      "##ooth": 4406,
      "##ters": 4407,
      "dum": 4408,
      "dunn": 4409,
      "##rap": 4410,
      "##rah": 4411,
      "aviez": 4412,
      "##sionne": 4413,
      "##sitez": 4414,
      "##amment": 4415,
      "##lation": 4416,
      "amanda": 4417,
      "##ature": 4418,
      "##ression": 4419,
      "##ilité": 4420,
      "##aste": 4421,
      "##assé": 4422,
      "##nifi": 4423,
      "produ": 4424,
      "process": 4425,
      "##dic": 4426,
      "tues": 4427,
      "quelconque": 4428,
      "##acte": 4429,
      "beach": 4430,
      "##agement": 4431,
      "##onnée": 4432,
      "##lip": 4433,
      "##limin": 4434,
      "inuti": 4435,
      "exe": 4436,
      "arch": 4437,
      "##ttez": 4438,
      "devenir": 4439,
      "devine": 4440,
      "devenu": 4441,
      "devinez": 4442,
      "##agnol": 4443,
      "##lés": 4444,
      "##ention": 4445,
      "peter": 4446,
      "pêche": 4447,
      "lignes": 4448,
      "come": 4449,
      "coeur": 4450,
      "côte": 4451,
      "coffre": 4452,
      "vamp": 4453,
      "##hhhhh": 4454,
      "##illée": 4455,
      "##cket": 4456,
      "écart": 4457,
      "tweeple": 4458,
      "prépar": 4459,
      "grr": 4460,
      "grin": 4461,
      "group": 4462,
      "modi": 4463,
      "essai": 4464,
      "adul": 4465,
      "addictif": 4466,
      "##inem": 4467,
      "souc": 4468,
      "amuse": 4469,
      "##lograph": 4470,
      "dispon": 4471,
      "accès": 4472,
      "perte": 4473,
      "permettre": 4474,
      "retournez": 4475,
      "sortez": 4476,
      "allait": 4477,
      "terrain": 4478,
      "##ordu": 4479,
      "##pirer": 4480,
      "intention": 4481,
      "petites": 4482,
      "chapit": 4483,
      "fatigue": 4484,
      "sentais": 4485,
      "sentez": 4486,
      "revien": 4487,
      "revient": 4488,
      "jouent": 4489,
      "rachel": 4490,
      "pleine": 4491,
      "##ntemps": 4492,
      "dernières": 4493,
      "appels": 4494,
      "béné": 4495,
      "mission": 4496,
      "litté": 4497,
      "méch": 4498,
      "métro": 4499,
      "##adder": 4500,
      "tweetdeck": 4501,
      "##rence": 4502,
      "##ogog": 4503,
      "grave": 4504,
      "utile": 4505,
      "longs": 4506,
      ".......": 4507,
      ".............": 4508,
      "........": 4509,
      "chauve": 4510,
      "chauff": 4511,
      "simple": 4512,
      "yayyy": 4513,
      "excitation": 4514,
      "gagnez": 4515,
      "taxi": 4516,
      "autographe": 4517,
      "##oday": 4518,
      "rentré": 4519,
      "connaît": 4520,
      "répond": 4521,
      "incroyables": 4522,
      "##key": 4523,
      "repro": 4524,
      "install": 4525,
      "holl": 4526,
      "studio": 4527,
      "cherchez": 4528,
      "claire": 4529,
      "idole": 4530,
      "bijou": 4531,
      "montre": 4532,
      "montrer": 4533,
      "océ": 4534,
      "verrou": 4535,
      "##cesse": 4536,
      "poster": 4537,
      "tix": 4538,
      "tiré": 4539,
      "tirer": 4540,
      "mecs": 4541,
      "charger": 4542,
      "chargé": 4543,
      "charmant": 4544,
      "préparez": 4545,
      "scott": 4546,
      "profon": 4547,
      "attendu": 4548,
      "attendais": 4549,
      "espérer": 4550,
      "entrevue": 4551,
      "pix": 4552,
      "sport": 4553,
      "espagnol": 4554,
      "écoutez": 4555,
      "##ddy": 4556,
      "posi": 4557,
      "commenç": 4558,
      "joyeuse": 4559,
      "printemps": 4560,
      "brille": 4561,
      "demandant": 4562,
      "télécharge": 4563,
      "blah": 4564,
      "rich": 4565,
      "ridi": 4566,
      "##fection": 4567,
      "##nny": 4568,
      "histoires": 4569,
      "morts": 4570,
      "volont": 4571,
      "info": 4572,
      "conduis": 4573,
      "conduite": 4574,
      "barbe": 4575,
      "gên": 4576,
      "voie": 4577,
      "payé": 4578,
      "gratuite": 4579,
      "tweeteradder": 4580,
      "théorie": 4581,
      "croisés": 4582,
      "1000": 4583,
      "cali": 4584,
      "calme": 4585,
      "camar": 4586,
      "hésitez": 4587,
      "itunes": 4588,
      "italie": 4589,
      "##ucks": 4590,
      "signer": 4591,
      "invitation": 4592,
      "battre": 4593,
      "eminem": 4594,
      "trek": 4595,
      "##tylograph": 4596,
      "maths": 4597,
      "rempli": 4598,
      "suivante": 4599,
      "favori": 4600,
      "chiot": 4601,
      "reconn": 4602,
      "brûler": 4603,
      "##issait": 4604,
      "douleurs": 4605,
      "intéress": 4606,
      "intéressé": 4607,
      "fix": 4608,
      "xxxx": 4609,
      "gentils": 4610,
      "clign": 4611,
      "mini": 4612,
      "##dame": 4613,
      "aimons": 4614,
      "!!!!!!!!!": 4615,
      "##iiiiiiii": 4616,
      "##ather": 4617,
      "profite": 4618,
      "##wwwww": 4619,
      "ancienne": 4620,
      "##oooooooooooooooo": 4621,
      "sacs": 4622,
      "albums": 4623,
      "accrocher": 4624,
      "actuellement": 4625,
      "actuelle": 4626,
      "lecteur": 4627,
      "##culaire": 4628,
      "reposer": 4629,
      "brad": 4630,
      "répand": 4631,
      "déplacé": 4632,
      "déplacer": 4633,
      "mmmmm": 4634,
      "awwwww": 4635,
      "ayant": 4636,
      "nature": 4637,
      "santa": 4638,
      "recette": 4639,
      "sexe": 4640,
      "##3333": 4641,
      "énervé": 4642,
      "refroid": 4643,
      "attraper": 4644,
      "écraser": 4645,
      "cadeaux": 4646,
      "information": 4647,
      "edward": 4648,
      "pièces": 4649,
      "statistiques": 4650,
      "199": 4651,
      "boutons": 4652,
      "fucking": 4653,
      "lycée": 4654,
      "ramasser": 4655,
      "silen": 4656,
      "modèle": 4657,
      "téléphon": 4658,
      "discours": 4659,
      "kristen": 4660,
      "tennis": 4661,
      "susan": 4662,
      "retiré": 4663,
      "entièrement": 4664,
      "##00000000": 4665,
      "souvenirs": 4666,
      "mentionné": 4667,
      "norvège": 4668,
      "détruit": 4669,
      "descendre": 4670,
      "limite": 4671,
      "princesse": 4672,
      "extrêmement": 4673,
      "cinq": 4674,
      "développ": 4675,
      "développe": 4676,
      "amener": 4677,
      "assurez": 4678,
      "effectivement": 4679,
      "sauveg": 4680,
      "scolaire": 4681,
      "sourires": 4682,
      "confirmation": 4683,
      "couverture": 4684,
      "austral": 4685,
      "australie": 4686,
      "achats": 4687,
      "encour": 4688,
      "peinture": 4689,
      "morceau": 4690,
      "recommandation": 4691,
      "relaxant": 4692,
      "araignée": 4693,
      "crainte": 4694,
      "fml": 4695,
      "ginge": 4696,
      "peeps": 4697,
      "sandwich": 4698,
      "bronz": 4699,
      "empêcher": 4700,
      "concerts": 4701,
      "hilarant": 4702,
      "aaah": 4703,
      "kitty": 4704,
      "pierre": 4705,
      "succès": 4706,
      "obligé": 4707,
      "différente": 4708,
      "fabuleux": 4709,
      "coiff": 4710,
      "nièce": 4711,
      "bonbons": 4712,
      "améliorer": 4713,
      "légèrement": 4714,
      "débarrasser": 4715,
      "firefox": 4716,
      "honnête": 4717,
      "multi": 4718,
      "pneu": 4719,
      "tmr": 4720,
      "machine": 4721,
      "dérangé": 4722,
      "horribles": 4723,
      "nécessaire": 4724,
      "fichiers": 4725,
      "entraînement": 4726,
      "logiciel": 4727,
      "imbécile": 4728,
      "bavard": 4729,
      "dactylograph": 4730,
      "kardash": 4731,
      "orig": 4732,
      "poitr": 4733,
      "seigneur": 4734,
      "processus": 4735,
      "02": 4736,
      "1ère": 4737,
      "28": 4738,
      "3d": 4739,
      "38": 4740,
      "70": 4741,
      "99": 4742,
      ";-": 4743,
      "ari": 4744,
      "asi": 4745,
      "aaaaa": 4746,
      "bn": 4747,
      "bin": 4748,
      "bur": 4749,
      "banc": 4750,
      "baie": 4751,
      "bamb": 4752,
      "cui": 4753,
      "cav": 4754,
      "cat": 4755,
      "cuit": 4756,
      "dall": 4757,
      "ee": 4758,
      "eb": 4759,
      "emm": 4760,
      "ever": 4761,
      "err": 4762,
      "fré": 4763,
      "faite": 4764,
      "flas": 4765,
      "front": 4766,
      "gd": 4767,
      "gam": 4768,
      "gur": 4769,
      "golf": 4770,
      "hm": 4771,
      "hav": 4772,
      "hay": 4773,
      "ian": 4774,
      "ident": 4775,
      "île": 4776,
      "jer": 4777,
      "jav": 4778,
      "jure": 4779,
      "jord": 4780,
      "joindre": 4781,
      "kat": 4782,
      "kay": 4783,
      "king": 4784,
      "lance": 4785,
      "mous": 4786,
      "mand": 4787,
      "meurs": 4788,
      "mains": 4789,
      "nation": 4790,
      "nooo": 4791,
      "nooooo": 4792,
      "oe": 4793,
      "oz": 4794,
      "opp": 4795,
      "ooooo": 4796,
      "pol": 4797,
      "poup": 4798,
      "pue": 4799,
      "ping": 4800,
      "pic": 4801,
      "pilo": 4802,
      "ris": 4803,
      "rang": 4804,
      "sn": 4805,
      "sd": 4806,
      "sœ": 4807,
      "sti": 4808,
      "sch": 4809,
      "say": 4810,
      "sonne": 4811,
      "soooo": 4812,
      "sonner": 4813,
      "tb": 4814,
      "tit": 4815,
      "tiss": 4816,
      "tasse": 4817,
      "vs": 4818,
      "vit": 4819,
      "vien": 4820,
      "wo": 4821,
      "wah": 4822,
      "way": 4823,
      "west": 4824,
      "wars": 4825,
      "yo": 4826,
      "yuck": 4827,
      "»,": 4828,
      "##uf": 4829,
      "##ura": 4830,
      "##uts": 4831,
      "##ules": 4832,
      "##sa": 4833,
      "##sl": 4834,
      "##stre": 4835,
      "##sée": 4836,
      "##teurs": 4837,
      "##tuel": 4838,
      "##ë": 4839,
      "##elli": 4840,
      "##illement": 4841,
      "##irer": 4842,
      "##icile": 4843,
      "##ight": 4844,
      "##za": 4845,
      "##zy": 4846,
      "##zon": 4847,
      "##gd": 4848,
      "##ng": 4849,
      "##nin": 4850,
      "##ote": 4851,
      "##veu": 4852,
      "##val": 4853,
      "##vés": 4854,
      "##ceur": 4855,
      "##cast": 4856,
      "##line": 4857,
      "##fo": 4858,
      "##feu": 4859,
      "##fait": 4860,
      "##̂né": 4861,
      "##do": 4862,
      "##dar": 4863,
      "##dale": 4864,
      "##hu": 4865,
      "##hous": 4866,
      "##hop": 4867,
      "##h00": 4868,
      "##yl": 4869,
      "##yer": 4870,
      "##ysique": 4871,
      "##men": 4872,
      "##mos": 4873,
      "##mise": 4874,
      "##82": 4875,
      "##̀de": 4876,
      "##̀les": 4877,
      "##̀nes": 4878,
      "##̀vres": 4879,
      "##xim": 4880,
      "##__": 4881,
      "##50": 4882,
      "##reau": 4883,
      "delà": 4884,
      "##ondre": 4885,
      "##esh": 4886,
      "jeté": 4887,
      "##enus": 4888,
      "##lever": 4889,
      "quarti": 4890,
      "pat": 4891,
      "pâ": 4892,
      "pati": 4893,
      "pari": 4894,
      "pack": 4895,
      "patr": 4896,
      "paquet": 4897,
      "##met": 4898,
      "##anche": 4899,
      "unis": 4900,
      "##oign": 4901,
      "labor": 4902,
      "##teils": 4903,
      "sux": 4904,
      "passant": 4905,
      "aiment": 4906,
      "...:": 4907,
      "...)": 4908,
      "enne": 4909,
      "##time": 4910,
      "##tine": 4911,
      "##tionn": 4912,
      "##tionne": 4913,
      "##tivé": 4914,
      "##quée": 4915,
      "##quille": 4916,
      "##qués": 4917,
      "##ora": 4918,
      "##ordre": 4919,
      "élé": 4920,
      "évis": 4921,
      "élimin": 4922,
      "mama": 4923,
      "madame": 4924,
      "##ino": 4925,
      "audio": 4926,
      "augment": 4927,
      "neveu": 4928,
      "met": 4929,
      "mêmes": 4930,
      "membres": 4931,
      "##omg": 4932,
      "##ombe": 4933,
      "##llen": 4934,
      "##set": 4935,
      "##sement": 4936,
      "ily": 4937,
      "reb": 4938,
      "reine": 4939,
      "redé": 4940,
      "remont": 4941,
      "##chés": 4942,
      "play": 4943,
      "seatt": 4944,
      "selon": 4945,
      "septe": 4946,
      "éter": 4947,
      "##cents": 4948,
      "##cilement": 4949,
      "##cieuse": 4950,
      "##rieux": 4951,
      "##riers": 4952,
      "##ript": 4953,
      "touch": 4954,
      "surve": 4955,
      "destin": 4956,
      "##onto": 4957,
      "##ontent": 4958,
      "##irts": 4959,
      "##aly": 4960,
      "dude": 4961,
      "##rale": 4962,
      "##rable": 4963,
      "avance": 4964,
      "avaient": 4965,
      "avions": 4966,
      "##ppines": 4967,
      "amaz": 4968,
      "##atoire": 4969,
      "##ressé": 4970,
      "##iler": 4971,
      "##ilé": 4972,
      "manuel": 4973,
      "##enson": 4974,
      "outi": 4975,
      "réuss": 4976,
      "récent": 4977,
      "prog": 4978,
      "proté": 4979,
      "##ditions": 4980,
      "##cool": 4981,
      "##illez": 4982,
      "bel": 4983,
      "vraie": 4984,
      "##ffff": 4985,
      "ange": 4986,
      "andre": 4987,
      "andy": 4988,
      "##ttt": 4989,
      "##tty": 4990,
      "##tteur": 4991,
      "infection": 4992,
      "semb": 4993,
      "semes": 4994,
      "sembl": 4995,
      "exer": 4996,
      "expi": 4997,
      "lolz": 4998,
      "arg": 4999,
      "arc": 5000,
      "devrions": 5001,
      "##ageux": 5002,
      "milles": 5003,
      "apporté": 5004,
      "##osez": 5005,
      "##ièrement": 5006,
      "##uisent": 5007,
      "seraient": 5008,
      "##uels": 5009,
      "pete": 5010,
      "peindre": 5011,
      "libé": 5012,
      "alcool": 5013,
      "##tins": 5014,
      "twitterland": 5015,
      "regardons": 5016,
      "pensent": 5017,
      "##oyé": 5018,
      "##érique": 5019,
      "complé": 5020,
      "comptant": 5021,
      "entier": 5022,
      "enthous": 5023,
      "retweet": 5024,
      "##drez": 5025,
      "viol": 5026,
      "vivant": 5027,
      "##ckers": 5028,
      "écris": 5029,
      "finissent": 5030,
      "hella": 5031,
      "hello": 5032,
      "prévis": 5033,
      "james": 5034,
      "soirs": 5035,
      "moque": 5036,
      "cafe": 5037,
      "resté": 5038,
      "respirer": 5039,
      "désac": 5040,
      "désordre": 5041,
      "adri": 5042,
      "conan": 5043,
      "conception": 5044,
      "##mmy": 5045,
      "soula": 5046,
      "soucie": 5047,
      "soutien": 5048,
      "##péré": 5049,
      "enver": 5050,
      "##losion": 5051,
      "disons": 5052,
      "tristement": 5053,
      "activ": 5054,
      "penses": 5055,
      "php": 5056,
      "phili": 5057,
      "philly": 5058,
      "physique": 5059,
      "perf": 5060,
      "puisque": 5061,
      "puissant": 5062,
      "mars": 5063,
      "mary": 5064,
      "marque": 5065,
      "marsh": 5066,
      "retourné": 5067,
      "sorry": 5068,
      "that": 5069,
      "manquent": 5070,
      "allant": 5071,
      "douce": 5072,
      "douceur": 5073,
      "courriel": 5074,
      "fêter": 5075,
      "vieill": 5076,
      "vietn": 5077,
      "chausse": 5078,
      "noë": 5079,
      "revenez": 5080,
      "raf": 5081,
      "##mbl": 5082,
      "orteils": 5083,
      "longues": 5084,
      "appelez": 5085,
      "béni": 5086,
      "##rrr": 5087,
      "accéder": 5088,
      "faciles": 5089,
      "fâché": 5090,
      "caracte": 5091,
      "salon": 5092,
      "facture": 5093,
      "tweetup": 5094,
      "roches": 5095,
      "##ogue": 5096,
      "graham": 5097,
      "##thon": 5098,
      "vouliez": 5099,
      "party": 5100,
      "##fice": 5101,
      "amitié": 5102,
      "##enull": 5103,
      "##yson": 5104,
      "##vention": 5105,
      "déjeuné": 5106,
      "musée": 5107,
      "gaga": 5108,
      "magique": 5109,
      "cheville": 5110,
      "taco": 5111,
      "taper": 5112,
      "tâche": 5113,
      "coupé": 5114,
      "couple": 5115,
      "coupable": 5116,
      "roule": 5117,
      "rouler": 5118,
      "prière": 5119,
      "brou": 5120,
      "brun": 5121,
      "connu": 5122,
      "repous": 5123,
      "repris": 5124,
      "installer": 5125,
      "holly": 5126,
      "voyant": 5127,
      "voyez": 5128,
      "##installer": 5129,
      "##eeeee": 5130,
      "noms": 5131,
      "##ness": 5132,
      "bio": 5133,
      "boucle": 5134,
      "étudie": 5135,
      "monte": 5136,
      "rends": 5137,
      "session": 5138,
      "verrai": 5139,
      "agri": 5140,
      "agissait": 5141,
      "nik": 5142,
      "poser": 5143,
      "poste": 5144,
      "séve": 5145,
      "séance": 5146,
      "parties": 5147,
      "préparé": 5148,
      "sauver": 5149,
      "##uuu": 5150,
      "combat": 5151,
      "vérifie": 5152,
      "tourn": 5153,
      "tourné": 5154,
      "souhaitent": 5155,
      "espérais": 5156,
      "connaissez": 5157,
      "force": 5158,
      "rêvé": 5159,
      "assister": 5160,
      "aidera": 5161,
      "##dding": 5162,
      "exception": 5163,
      "consta": 5164,
      "décision": 5165,
      "poe": 5166,
      "pote": 5167,
      "prise": 5168,
      "sydney": 5169,
      "babe": 5170,
      "jume": 5171,
      "##trant": 5172,
      "oublier": 5173,
      "souhaité": 5174,
      "gaz": 5175,
      "offense": 5176,
      "époque": 5177,
      "messager": 5178,
      "brian": 5179,
      "travaillent": 5180,
      "demandais": 5181,
      "riz": 5182,
      "rick": 5183,
      "glaces": 5184,
      "##bull": 5185,
      "caféine": 5186,
      "contente": 5187,
      "photoshop": 5188,
      "##oureuses": 5189,
      "préférés": 5190,
      "mordre": 5191,
      "étudiants": 5192,
      "vols": 5193,
      "informer": 5194,
      "confiture": 5195,
      "barre": 5196,
      "solu": 5197,
      "créer": 5198,
      "grosse": 5199,
      "grossier": 5200,
      "voilà": 5201,
      "publication": 5202,
      "jones": 5203,
      "veg": 5204,
      "tweeters": 5205,
      "there": 5206,
      "thérap": 5207,
      "?!?!": 5208,
      "blogs": 5209,
      "habituellement": 5210,
      "habituer": 5211,
      "héber": 5212,
      "whoa": 5213,
      "expli": 5214,
      "explosion": 5215,
      "creve": 5216,
      "ruine": 5217,
      "rupt": 5218,
      "chantant": 5219,
      "laissera": 5220,
      "atti": 5221,
      "atlant": 5222,
      "##igan": 5223,
      "##igner": 5224,
      "hehehe": 5225,
      "2010": 5226,
      "général": 5227,
      "total": 5228,
      "##cake": 5229,
      "##matique": 5230,
      "suffis": 5231,
      "rempla": 5232,
      "remplis": 5233,
      "suiveurs": 5234,
      "rappelé": 5235,
      "rappeler": 5236,
      "ensoleillée": 5237,
      "cup": 5238,
      "formation": 5239,
      "résum": 5240,
      "craquer": 5241,
      "portefeu": 5242,
      "feuille": 5243,
      "humour": 5244,
      "humain": 5245,
      "humides": 5246,
      "mangeant": 5247,
      "!!!!!!!!!!!!!!!": 5248,
      "baltim": 5249,
      "tests": 5250,
      "emballé": 5251,
      "dirai": 5252,
      "dirait": 5253,
      "##aaaay": 5254,
      "fraises": 5255,
      "optim": 5256,
      "normal": 5257,
      "sortis": 5258,
      "rejoignez": 5259,
      "produits": 5260,
      "écouteurs": 5261,
      "nombreux": 5262,
      "aliments": 5263,
      "éval": 5264,
      "éviter": 5265,
      "déplace": 5266,
      "découvrez": 5267,
      "140": 5268,
      "grec": 5269,
      "obtiens": 5270,
      "obtient": 5271,
      "chaussure": 5272,
      "austin": 5273,
      "domaine": 5274,
      "domicile": 5275,
      "diriger": 5276,
      "regrette": 5277,
      "déprimé": 5278,
      "déprimant": 5279,
      "banque": 5280,
      "rendent": 5281,
      "twitpi": 5282,
      "attrapé": 5283,
      "##férences": 5284,
      "farrah": 5285,
      "large": 5286,
      "automne": 5287,
      "automatique": 5288,
      "##xxxxxxxxxxxxxxxx": 5289,
      "pantalon": 5290,
      "poisson": 5291,
      "enregistrer": 5292,
      "choisi": 5293,
      "silence": 5294,
      "entraîner": 5295,
      "sociaux": 5296,
      "frustrant": 5297,
      "gahh": 5298,
      "susp": 5299,
      "tenté": 5300,
      "ouverture": 5301,
      "artiste": 5302,
      "réveillez": 5303,
      "city": 5304,
      "girl": 5305,
      "toronto": 5306,
      "détruire": 5307,
      "capable": 5308,
      "mélange": 5309,
      "battu": 5310,
      "##((((": 5311,
      "##titude": 5312,
      "déchir": 5313,
      "rapport": 5314,
      "commander": 5315,
      "commandé": 5316,
      "supprimer": 5317,
      "souriant": 5318,
      "transformateurs": 5319,
      "roman": 5320,
      "tendance": 5321,
      "tendances": 5322,
      "traîner": 5323,
      "récupérer": 5324,
      "supposé": 5325,
      "morceaux": 5326,
      "fallait": 5327,
      "local": 5328,
      "##mètres": 5329,
      "éteint": 5330,
      "miami": 5331,
      "économie": 5332,
      "ressentir": 5333,
      "correspond": 5334,
      "stressant": 5335,
      "dirigea": 5336,
      "hamburger": 5337,
      "hamburgers": 5338,
      "adieu": 5339,
      "bgt": 5340,
      "boston": 5341,
      "siège": 5342,
      "lentement": 5343,
      "ressembler": 5344,
      "médica": 5345,
      "autorisé": 5346,
      "hôtel": 5347,
      "correctement": 5348,
      "embrasse": 5349,
      "planifier": 5350,
      "blessé": 5351,
      "gonflé": 5352,
      "gestion": 5353,
      "pommes": 5354,
      "tatou": 5355,
      "torture": 5356,
      "wtf": 5357,
      "yahoo": 5358,
      "amygd": 5359,
      "ouverte": 5360,
      "accueil": 5361,
      "consultez": 5362,
      "discussion": 5363,
      "céréales": 5364,
      "lvatt": 5365,
      "watchin": 5366,
      "##enix": 5367,
      "mexic": 5368,
      "chimie": 5369,
      "secret": 5370,
      "désolée": 5371,
      "conversation": 5372,
      "sympathie": 5373,
      "biscuits": 5374,
      "végétariens": 5375,
      "arach": 5376,
      "donnie": 5377,
      "gauf": 5378,
      "mirac": 5379,
      "nadal": 5380,
      "opération": 5381,
      "punk": 5382,
      "taureau": 5383,
      "##bourne": 5384,
      "marathon": 5385,
      "changé": 5386,
      "rembour": 5387,
      "désireux": 5388,
      "étoiles": 5389,
      "commande": 5390,
      "paranoï": 5391,
      "inutile": 5392,
      "groupes": 5393,
      "reviendrez": 5394,
      "ridicule": 5395,
      "camarades": 5396,
      "reconnais": 5397,
      "refroidissement": 5398,
      "silencieux": 5399,
      "gingembre": 5400,
      "poitrine": 5401,
      "dallas": 5402,
      "jordan": 5403,
      "sœurs": 5404,
      "éviscé": 5405,
      "seattle": 5406,
      "septembre": 5407,
      "enthousi": 5408,
      "philippines": 5409,
      "vietnam": 5410,
      "chaussettes": 5411,
      "noël": 5412,
      "constater": 5413,
      "rupture": 5414,
      "baltimore": 5415,
      "\"?": 5416,
      "04": 5417,
      "27": 5418,
      "2mor": 5419,
      "36": 5420,
      "31": 5421,
      "4g": 5422,
      "5k": 5423,
      "5h30": 5424,
      "6h": 5425,
      "66": 5426,
      "78": 5427,
      "85": 5428,
      "ace": 5429,
      "aaa": 5430,
      "abe": 5431,
      "agh": 5432,
      "âne": 5433,
      "bc": 5434,
      "bol": 5435,
      "bee": 5436,
      "bag": 5437,
      "bill": 5438,
      "bros": 5439,
      "box": 5440,
      "back": 5441,
      "bières": 5442,
      "billy": 5443,
      "bombe": 5444,
      "ct": 5445,
      "coo": 5446,
      "csi": 5447,
      "cla": 5448,
      "cris": 5449,
      "cord": 5450,
      "citation": 5451,
      "clés": 5452,
      "dw": 5453,
      "dor": 5454,
      "dal": 5455,
      "doo": 5456,
      "dors": 5457,
      "dog": 5458,
      "diner": 5459,
      "dorme": 5460,
      "down": 5461,
      "ev": 5462,
      "eri": 5463,
      "eli": 5464,
      "ewwww": 5465,
      "elli": 5466,
      "eric": 5467,
      "f1": 5468,
      "fla": 5469,
      "fure": 5470,
      "foin": 5471,
      "fière": 5472,
      "fun": 5473,
      "fum": 5474,
      "fuse": 5475,
      "fox": 5476,
      "ftw": 5477,
      "fasse": 5478,
      "got": 5479,
      "god": 5480,
      "gab": 5481,
      "glas": 5482,
      "gosh": 5483,
      "gnight": 5484,
      "hw": 5485,
      "hon": 5486,
      "hee": 5487,
      "ham": 5488,
      "hill": 5489,
      "ik": 5490,
      "ive": 5491,
      "ine": 5492,
      "iph": 5493,
      "jan": 5494,
      "jas": 5495,
      "jés": 5496,
      "kk": 5497,
      "kf": 5498,
      "km": 5499,
      "kati": 5500,
      "kath": 5501,
      "lour": 5502,
      "lot": 5503,
      "lancer": 5504,
      "mun": 5505,
      "menson": 5506,
      "nz": 5507,
      "nk": 5508,
      "nou": 5509,
      "noooooooo": 5510,
      "od": 5511,
      "oooo": 5512,
      "pen": 5513,
      "paire": 5514,
      "pur": 5515,
      "pod": 5516,
      "pms": 5517,
      "pomme": 5518,
      "pong": 5519,
      "poing": 5520,
      "rp": 5521,
      "rai": 5522,
      "ros": 5523,
      "rois": 5524,
      "rat": 5525,
      "rite": 5526,
      "romp": 5527,
      "sons": 5528,
      "sla": 5529,
      "spa": 5530,
      "sky": 5531,
      "sites": 5532,
      "srs": 5533,
      "soph": 5534,
      "tenue": 5535,
      "trés": 5536,
      "taille": 5537,
      "tyson": 5538,
      "veste": 5539,
      "wol": 5540,
      "wall": 5541,
      "wash": 5542,
      "xp": 5543,
      "za": 5544,
      "zzzzz": 5545,
      "œuv": 5546,
      "##ug": 5547,
      "##ud": 5548,
      "##ues": 5549,
      "##ueux": 5550,
      "##ula": 5551,
      "##ulé": 5552,
      "##udent": 5553,
      "##ubs": 5554,
      "##rin": 5555,
      "##so": 5556,
      "##ssent": 5557,
      "##téri": 5558,
      "##tail": 5559,
      "##ek": 5560,
      "##io": 5561,
      "##ié": 5562,
      "##ian": 5563,
      "##ive": 5564,
      "##iam": 5565,
      "##ila": 5566,
      "##ires": 5567,
      "##ionn": 5568,
      "##itez": 5569,
      "##igh": 5570,
      "##pis": 5571,
      "##pri": 5572,
      "##pons": 5573,
      "##pers": 5574,
      "##gor": 5575,
      "##gar": 5576,
      "##geur": 5577,
      "##gic": 5578,
      "##gare": 5579,
      "##nation": 5580,
      "##ké": 5581,
      "##app": 5582,
      "##aller": 5583,
      "##apé": 5584,
      "##ock": 5585,
      "##otement": 5586,
      "##oft": 5587,
      "##vais": 5588,
      "##ville": 5589,
      "##vage": 5590,
      "##vation": 5591,
      "##ving": 5592,
      "##cd": 5593,
      "##cros": 5594,
      "##castique": 5595,
      "##comp": 5596,
      "##content": 5597,
      "##lam": 5598,
      "##lot": 5599,
      "##lure": 5600,
      "##fu": 5601,
      "##fois": 5602,
      "##̂pes": 5603,
      "##dage": 5604,
      "##̧ons": 5605,
      "##hé": 5606,
      "##wis": 5607,
      "##yon": 5608,
      "##mmer": 5609,
      "##ming": 5610,
      "##més": 5611,
      "##mall": 5612,
      "##mante": 5613,
      "##boo": 5614,
      "##but": 5615,
      "##ji": 5616,
      "##jo": 5617,
      "##̀che": 5618,
      "##xt": 5619,
      "##xy": 5620,
      "##97": 5621,
      "##45": 5622,
      "##oudre": 5623,
      "##aitez": 5624,
      "##reurs": 5625,
      "##ero": 5626,
      "##ér": 5627,
      "##écu": 5628,
      "##ongé": 5629,
      "##ese": 5630,
      "##essionne": 5631,
      "##espéré": 5632,
      "jeans": 5633,
      "jeff": 5634,
      "##ener": 5635,
      "##enne": 5636,
      "##enons": 5637,
      "##eniez": 5638,
      "##lee": 5639,
      "quoti": 5640,
      "##istique": 5641,
      "pac": 5642,
      "paro": 5643,
      "pani": 5644,
      "patri": 5645,
      "##aissent": 5646,
      "escal": 5647,
      "lave": 5648,
      "lâche": 5649,
      "leçon": 5650,
      "lequel": 5651,
      "lèvres": 5652,
      "lewis": 5653,
      "sueur": 5654,
      "suck": 5655,
      "sugg": 5656,
      "sush": 5657,
      "passion": 5658,
      "aille": 5659,
      "ailes": 5660,
      "...!": 5661,
      "##timent": 5662,
      "##user": 5663,
      "##usez": 5664,
      "##vembre": 5665,
      "##antage": 5666,
      "##orou": 5667,
      "##oration": 5668,
      "##ortez": 5669,
      "pourraient": 5670,
      "équ": 5671,
      "épe": 5672,
      "évi": 5673,
      "émo": 5674,
      "##lley": 5675,
      "mah": 5676,
      "maté": 5677,
      "celle": 5678,
      "##ita": 5679,
      "##itée": 5680,
      "##iteur": 5681,
      "##iels": 5682,
      "membre": 5683,
      "mettez": 5684,
      "##omie": 5685,
      "##llis": 5686,
      "##llants": 5687,
      "##sec": 5688,
      "rè": 5689,
      "reje": 5690,
      "remettre": 5691,
      "monstre": 5692,
      "##iends": 5693,
      "##aures": 5694,
      "##auté": 5695,
      "##chons": 5696,
      "##chers": 5697,
      "##cheuse": 5698,
      "##derer": 5699,
      "##dente": 5700,
      "##demment": 5701,
      "plai": 5702,
      "plain": 5703,
      "plats": 5704,
      "##ansas": 5705,
      "déver": 5706,
      "dérou": 5707,
      "sec": 5708,
      "##olol": 5709,
      "étage": 5710,
      "étouff": 5711,
      "telle": 5712,
      "tente": 5713,
      "##rock": 5714,
      "##ciers": 5715,
      "##cils": 5716,
      "surf": 5717,
      "design": 5718,
      "##geant": 5719,
      "siff": 5720,
      "simon": 5721,
      "##irl": 5722,
      "##irter": 5723,
      "##alien": 5724,
      "##ooz": 5725,
      "##endrier": 5726,
      "##raord": 5727,
      "avaler": 5728,
      "##sif": 5729,
      "##ost": 5730,
      "##osaures": 5731,
      "##oise": 5732,
      "##atles": 5733,
      "##atomie": 5734,
      "##resser": 5735,
      "##otb": 5736,
      "##raite": 5737,
      "##atiques": 5738,
      "##atives": 5739,
      "##iles": 5740,
      "manches": 5741,
      "##enser": 5742,
      "twi": 5743,
      "twili": 5744,
      "our": 5745,
      "ouv": 5746,
      "ouch": 5747,
      "réf": 5748,
      "réd": 5749,
      "rédu": 5750,
      "réalité": 5751,
      "rétab": 5752,
      "récomp": 5753,
      "div": 5754,
      "dix": 5755,
      "divert": 5756,
      "##nite": 5757,
      "proc": 5758,
      "prote": 5759,
      "protes": 5760,
      "prodi": 5761,
      "##cob": 5762,
      "mesure": 5763,
      "tut": 5764,
      "##acé": 5765,
      "bey": 5766,
      "beth": 5767,
      "beatles": 5768,
      "##chelle": 5769,
      "##ffin": 5770,
      "angle": 5771,
      "anges": 5772,
      "anatomie": 5773,
      "quiz": 5774,
      "##ttant": 5775,
      "injus": 5776,
      "##urk": 5777,
      "##ury": 5778,
      "##urant": 5779,
      "arts": 5780,
      "##ouver": 5781,
      "devienne": 5782,
      "deviner": 5783,
      "mike": 5784,
      "milli": 5785,
      "micros": 5786,
      "appuy": 5787,
      "étés": 5788,
      "serons": 5789,
      "seras": 5790,
      "servie": 5791,
      "pelu": 5792,
      "##onnez": 5793,
      "##onnements": 5794,
      "beauté": 5795,
      "ohh": 5796,
      "ohhhh": 5797,
      "lib": 5798,
      "live": 5799,
      "prête": 5800,
      "coc": 5801,
      "code": 5802,
      "coke": 5803,
      "corée": 5804,
      "##ormes": 5805,
      "altern": 5806,
      "vallée": 5807,
      "twitters": 5808,
      "twitterf": 5809,
      "regardais": 5810,
      "attaque": 5811,
      "##oyer": 5812,
      "compter": 5813,
      "compli": 5814,
      "complet": 5815,
      "entrez": 5816,
      "##raison": 5817,
      "retraite": 5818,
      "vid": 5819,
      "vier": 5820,
      "vivent": 5821,
      "victi": 5822,
      "écure": 5823,
      "finis": 5824,
      "finit": 5825,
      "final": 5826,
      "hea": 5827,
      "hell": 5828,
      "préc": 5829,
      "préoc": 5830,
      "présente": 5831,
      "grav": 5832,
      "stand": 5833,
      "jamb": 5834,
      "##phe": 5835,
      "moche": 5836,
      "call": 5837,
      "##cté": 5838,
      "objet": 5839,
      "obses": 5840,
      "savent": 5841,
      "respect": 5842,
      "restant": 5843,
      "respiration": 5844,
      "respons": 5845,
      "désespéré": 5846,
      "congra": 5847,
      "##mmmm": 5848,
      "sox": 5849,
      "soeurs": 5850,
      "social": 5851,
      "matins": 5852,
      "souci": 5853,
      "south": 5854,
      "##oléances": 5855,
      "##gul": 5856,
      "##guer": 5857,
      "pensait": 5858,
      "essaye": 5859,
      "essayais": 5860,
      "phil": 5861,
      "phone": 5862,
      "##ung": 5863,
      "perman": 5864,
      "perry": 5865,
      "permis": 5866,
      "martin": 5867,
      "hausse": 5868,
      "chef": 5869,
      "check": 5870,
      "chemis": 5871,
      "chemise": 5872,
      "sortent": 5873,
      "tht": 5874,
      "thème": 5875,
      "allés": 5876,
      "allions": 5877,
      "couru": 5878,
      "gardez": 5879,
      "fêtes": 5880,
      "federer": 5881,
      "quelquefois": 5882,
      "intelli": 5883,
      "##belle": 5884,
      "direction": 5885,
      "chale": 5886,
      "weekend": 5887,
      "sentirez": 5888,
      "nope": 5889,
      "novembre": 5890,
      "ramène": 5891,
      "fatiguant": 5892,
      "impli": 5893,
      "impuis": 5894,
      "ordre": 5895,
      "orth": 5896,
      "orland": 5897,
      "commis": 5898,
      "communi": 5899,
      "##gnées": 5900,
      "maladie": 5901,
      "absent": 5902,
      "grandi": 5903,
      "grandir": 5904,
      "##rry": 5905,
      "coûte": 5906,
      "couché": 5907,
      "coucou": 5908,
      "mécontent": 5909,
      "ennuyer": 5910,
      "souhaitez": 5911,
      "amusantes": 5912,
      "bascu": 5913,
      "##adway": 5914,
      "façons": 5915,
      "rocks": 5916,
      "rofl": 5917,
      "vissé": 5918,
      "##ther": 5919,
      "##ject": 5920,
      "voulons": 5921,
      "##ulaire": 5922,
      "##ulsé": 5923,
      "inconn": 5924,
      "chauds": 5925,
      "##ysf": 5926,
      "achè": 5927,
      "diffusé": 5928,
      "muscles": 5929,
      "utilisation": 5930,
      "utilisateurs": 5931,
      "ima": 5932,
      "dépos": 5933,
      "dépassé": 5934,
      "déposez": 5935,
      "##zzy": 5936,
      "premiers": 5937,
      "terminées": 5938,
      "puni": 5939,
      "magiques": 5940,
      "magaz": 5941,
      "magnifi": 5942,
      "##yyy": 5943,
      "tafe": 5944,
      "##viseur": 5945,
      "omfg": 5946,
      "portent": 5947,
      "rouges": 5948,
      "autorou": 5949,
      "veuillez": 5950,
      "prudent": 5951,
      "rentrant": 5952,
      "bru": 5953,
      "brand": 5954,
      "##idat": 5955,
      "bloquer": 5956,
      "insom": 5957,
      "inspir": 5958,
      "inspiration": 5959,
      "home": 5960,
      "casser": 5961,
      "salutations": 5962,
      "clav": 5963,
      "clubs": 5964,
      "voitures": 5965,
      "##aaaaa": 5966,
      "bible": 5967,
      "pression": 5968,
      "montagne": 5969,
      "##ggy": 5970,
      "##ggin": 5971,
      "##gggg": 5972,
      "agité": 5973,
      "post": 5974,
      "sépa": 5975,
      "ticke": 5976,
      "##ocat": 5977,
      "particul": 5978,
      "foule": 5979,
      "personnage": 5980,
      "horaires": 5981,
      "tourner": 5982,
      "##berry": 5983,
      "espérant": 5984,
      "marié": 5985,
      "famili": 5986,
      "spin": 5987,
      "sports": 5988,
      "consc": 5989,
      "conser": 5990,
      "portant": 5991,
      "décon": 5992,
      "occupe": 5993,
      "syn": 5994,
      "débit": 5995,
      "bateau": 5996,
      "gud": 5997,
      "gué": 5998,
      "souhaits": 5999,
      "gâch": 6000,
      "nuageux": 6001,
      "offre": 6002,
      "épique": 6003,
      "malheureux": 6004,
      "classique": 6005,
      "téléchargé": 6006,
      "croise": 6007,
      "rip": 6008,
      "riley": 6009,
      "chienne": 6010,
      "préfére": 6011,
      "ajoute": 6012,
      "mortes": 6013,
      "mornin": 6014,
      "affi": 6015,
      "soupirer": 6016,
      "changent": 6017,
      "baiser": 6018,
      "baisse": 6019,
      "faibles": 6020,
      "confus": 6021,
      "conduit": 6022,
      "condoléances": 6023,
      "bug": 6024,
      "canards": 6025,
      "cannelle": 6026,
      "canapé": 6027,
      "chaton": 6028,
      "gêner": 6029,
      "retardé": 6030,
      "jolies": 6031,
      "smooth": 6032,
      "collier": 6033,
      "dange": 6034,
      "danny": 6035,
      "calendrier": 6036,
      "cuisin": 6037,
      "transport": 6038,
      "livraison": 6039,
      "gentille": 6040,
      "héro": 6041,
      "remercier": 6042,
      "extraord": 6043,
      "expl": 6044,
      "exposition": 6045,
      "explos": 6046,
      "expulsé": 6047,
      "italien": 6048,
      "ruiné": 6049,
      "attitude": 6050,
      "invite": 6051,
      "invités": 6052,
      "comprend": 6053,
      "campus": 6054,
      "camping": 6055,
      "##rrrrrrrr": 6056,
      "blanche": 6057,
      "bataille": 6058,
      "donnerais": 6059,
      "myr": 6060,
      "trempé": 6061,
      "bbc": 6062,
      "pisse": 6063,
      "spéci": 6064,
      "spéciale": 6065,
      "##lands": 6066,
      "plaisanter": 6067,
      "généreux": 6068,
      "flori": 6069,
      "flirter": 6070,
      "quittez": 6071,
      "mentir": 6072,
      "remporté": 6073,
      "suiveur": 6074,
      "rappel": 6075,
      "curieux": 6076,
      "favor": 6077,
      "faveur": 6078,
      "toky": 6079,
      "résoudre": 6080,
      "présenter": 6081,
      "présentation": 6082,
      "laissés": 6083,
      "remerciements": 6084,
      "pousser": 6085,
      "artifice": 6086,
      "nettoyé": 6087,
      "davantage": 6088,
      "nya": 6089,
      "##lyn": 6090,
      "appareil": 6091,
      "souffre": 6092,
      "minuit": 6093,
      "steve": 6094,
      "##orieux": 6095,
      "##iendrai": 6096,
      "!!!!!!!!!!!": 6097,
      "bob": 6098,
      "balanc": 6099,
      "balcon": 6100,
      "##athan": 6101,
      "annulée": 6102,
      "endroits": 6103,
      "électric": 6104,
      "2008": 6105,
      "animé": 6106,
      "cerise": 6107,
      "complète": 6108,
      "##ooooooooooo": 6109,
      "données": 6110,
      "faudra": 6111,
      "lég": 6112,
      "msg": 6113,
      "option": 6114,
      "champign": 6115,
      "accroché": 6116,
      "spécialiste": 6117,
      "normale": 6118,
      "##aliser": 6119,
      "réparé": 6120,
      "disparue": 6121,
      "harce": 6122,
      "haric": 6123,
      "harry": 6124,
      "mcc": 6125,
      "apparaître": 6126,
      "découvert": 6127,
      "broadway": 6128,
      "follow": 6129,
      "jouets": 6130,
      "transformer": 6131,
      "rattrapé": 6132,
      "domin": 6133,
      "natation": 6134,
      "oreille": 6135,
      "oreiller": 6136,
      "wiki": 6137,
      "reçoit": 6138,
      "défilé": 6139,
      "secondes": 6140,
      "officiel": 6141,
      "idéal": 6142,
      "##lexe": 6143,
      "énormes": 6144,
      "douloureuses": 6145,
      "##eeeeeeeeeeeeeeee": 6146,
      "impressionnants": 6147,
      "boyle": 6148,
      "immé": 6149,
      "statut": 6150,
      "inscrit": 6151,
      "stupid": 6152,
      "bouton": 6153,
      "fudge": 6154,
      "fuckin": 6155,
      "irlande": 6156,
      "police": 6157,
      "urgh": 6158,
      "virus": 6159,
      "virtuel": 6160,
      "enregistrement": 6161,
      "émissions": 6162,
      "masque": 6163,
      "choisir": 6164,
      "étonnant": 6165,
      "tempêtes": 6166,
      "##cipal": 6167,
      "promets": 6168,
      "prometteur": 6169,
      "adorables": 6170,
      "conseil": 6171,
      "abandonner": 6172,
      "américain": 6173,
      "drame": 6174,
      "satis": 6175,
      "tension": 6176,
      "vendu": 6177,
      "tristesse": 6178,
      "redoutant": 6179,
      "redbull": 6180,
      "oublie": 6181,
      "mentionner": 6182,
      "bacon": 6183,
      "enseign": 6184,
      "enseigne": 6185,
      "pluvieuse": 6186,
      "millions": 6187,
      "compagn": 6188,
      "perdus": 6189,
      "importance": 6190,
      "organ": 6191,
      "couleurs": 6192,
      "mélanger": 6193,
      "freaking": 6194,
      "cinqu": 6195,
      "logique": 6196,
      "mérite": 6197,
      "méritez": 6198,
      "sara": 6199,
      "sarah": 6200,
      "sarcastique": 6201,
      "autoco": 6202,
      "autobus": 6203,
      "effectu": 6204,
      "dinosaures": 6205,
      "flick": 6206,
      "aspirent": 6207,
      "retrouver": 6208,
      "video": 6209,
      "déménager": 6210,
      "araignées": 6211,
      "break": 6212,
      "cost": 6213,
      "drole": 6214,
      "situation": 6215,
      "décembre": 6216,
      "signature": 6217,
      "région": 6218,
      "hawaii": 6219,
      "fonctionnait": 6220,
      "reprend": 6221,
      "bosse": 6222,
      "croyez": 6223,
      "herbe": 6224,
      "kyle": 6225,
      "sièges": 6226,
      "##fications": 6227,
      "supéri": 6228,
      "passionnant": 6229,
      "melbourne": 6230,
      "tromper": 6231,
      "accepté": 6232,
      "gagnant": 6233,
      "timide": 6234,
      "parfaitement": 6235,
      "annoncé": 6236,
      "brancher": 6237,
      "candidat": 6238,
      "gunna": 6239,
      "gooood": 6240,
      "halo": 6241,
      "kobe": 6242,
      "oiseau": 6243,
      "oiseaux": 6244,
      "txt": 6245,
      "vomir": 6246,
      "viendra": 6247,
      "yesss": 6248,
      "lapin": 6249,
      "lapins": 6250,
      "trajet": 6251,
      "paralle": 6252,
      "appropri": 6253,
      "adresses": 6254,
      "phoenix": 6255,
      "courtiser": 6256,
      "basket": 6257,
      "bouleversé": 6258,
      "alimentation": 6259,
      "baign": 6260,
      "bitch": 6261,
      "cauchemar": 6262,
      "fraîche": 6263,
      "gross": 6264,
      "haute": 6265,
      "hurler": 6266,
      "jimmy": 6267,
      "jesse": 6268,
      "william": 6269,
      "wordpress": 6270,
      "widget": 6271,
      "yoga": 6272,
      "lettres": 6273,
      "cellule": 6274,
      "tryna": 6275,
      "démons": 6276,
      "simil": 6277,
      "confiance": 6278,
      "concentrer": 6279,
      "distribut": 6280,
      "imprimer": 6281,
      "appellerai": 6282,
      "fabrication": 6283,
      "connaissais": 6284,
      "splend": 6285,
      "brillante": 6286,
      "créatif": 6287,
      "négati": 6288,
      "secondaire": 6289,
      "navigation": 6290,
      "événement": 6291,
      "gasp": 6292,
      "hardcore": 6293,
      "haïssent": 6294,
      "jaune": 6295,
      "power": 6296,
      "randonnée": 6297,
      "trébu": 6298,
      "yikes": 6299,
      "##ggets": 6300,
      "denver": 6301,
      "éloign": 6302,
      "étiquette": 6303,
      "dunno": 6304,
      "exemp": 6305,
      "vampires": 6306,
      "préparant": 6307,
      "soucis": 6308,
      "disponible": 6309,
      "littéralement": 6310,
      "méchants": 6311,
      "chauffe": 6312,
      "bijoux": 6313,
      "océan": 6314,
      "commençant": 6315,
      "richard": 6316,
      "intéressante": 6317,
      "développement": 6318,
      "sauvegard": 6319,
      "bronzage": 6320,
      "honnêtement": 6321,
      "bavardage": 6322,
      ";-)": 6323,
      "cuir": 6324,
      "ebay": 6325,
      "flash": 6326,
      "oeil": 6327,
      "poupée": 6328,
      "sonnerie": 6329,
      "tbh": 6330,
      "tissus": 6331,
      "quartier": 6332,
      "pâques": 6333,
      "laboratoire": 6334,
      "éliminé": 6335,
      "rebours": 6336,
      "surveiller": 6337,
      "semestre": 6338,
      "semblait": 6339,
      "exerci": 6340,
      "expiré": 6341,
      "compléter": 6342,
      "désactivé": 6343,
      "perform": 6344,
      "marshmall": 6345,
      "caractères": 6346,
      "repousser": 6347,
      "vegas": 6348,
      "crevettes": 6349,
      "résumé": 6350,
      "optimiste": 6351,
      "twitpic": 6352,
      "médicaments": 6353,
      "paranoïaque": 6354,
      "reconnaissant": 6355,
      "éviscéré": 6356,
      "enthousiaste": 6357,
      "dormez": 6358,
      "inex": 6359,
      "iphones": 6360,
      "jésus": 6361,
      "kfc": 6362,
      "katie": 6363,
      "nkotb": 6364,
      "wolver": 6365,
      "œuvre": 6366,
      "quotid": 6367,
      "parole": 6368,
      "sugges": 6369,
      "épeler": 6370,
      "plaindre": 6371,
      "microsoft": 6372,
      "victime": 6373,
      "congrats": 6374,
      "permanent": 6375,
      "chemises": 6376,
      "intelligent": 6377,
      "magazine": 6378,
      "magnifiques": 6379,
      "tickets": 6380,
      "extraordinaire": 6381,
      "floride": 6382,
      "tokyo": 6383,
      "électricité": 6384,
      "éloigné": 6385,
      "marshmallows": 6386,
      "**": 6387,
      "***": 6388,
      "//": 6389,
      "06": 6390,
      "1h": 6391,
      "2ny": 6392,
      "37": 6393,
      "33": 6394,
      "34": 6395,
      "3gs": 6396,
      "48": 6397,
      "400": 6398,
      "4h30": 6399,
      "55": 6400,
      "500": 6401,
      "6h30": 6402,
      "7h": 6403,
      "7q": 6404,
      "77": 6405,
      "7ème": 6406,
      "82": 6407,
      "8ème": 6408,
      "97": 6409,
      "96": 6410,
      "95": 6411,
      ";;": 6412,
      "=]": 6413,
      "?\"": 6414,
      "___": 6415,
      "ak": 6416,
      "aj": 6417,
      "ate": 6418,
      "ala": 6419,
      "agne": 6420,
      "agent": 6421,
      "aka": 6422,
      "aaron": 6423,
      "bs": 6424,
      "by": 6425,
      "bor": 6426,
      "beur": 6427,
      "bil": 6428,
      "buv": 6429,
      "bite": 6430,
      "bague": 6431,
      "cs": 6432,
      "cé": 6433,
      "cus": 6434,
      "cot": 6435,
      "cine": 6436,
      "clo": 6437,
      "cras": 6438,
      "cuire": 6439,
      "dri": 6440,
      "doy": 6441,
      "dort": 6442,
      "ding": 6443,
      "dork": 6444,
      "dsl": 6445,
      "dysf": 6446,
      "ew": 6447,
      "eur": 6448,
      "ehh": 6449,
      "ella": 6450,
      "ft": 6451,
      "fy": 6452,
      "fé": 6453,
      "fos": 6454,
      "fas": 6455,
      "foire": 6456,
      "fass": 6457,
      "gh": 6458,
      "gw": 6459,
      "gb": 6460,
      "gai": 6461,
      "gour": 6462,
      "gav": 6463,
      "gal": 6464,
      "gil": 6465,
      "gue": 6466,
      "glo": 6467,
      "gall": 6468,
      "gang": 6469,
      "gare": 6470,
      "hp": 6471,
      "hus": 6472,
      "heur": 6473,
      "has": 6474,
      "huit": 6475,
      "hop": 6476,
      "how": 6477,
      "hang": 6478,
      "hash": 6479,
      "ib": 6480,
      "ire": 6481,
      "ico": 6482,
      "ike": 6483,
      "illé": 6484,
      "ish": 6485,
      "jk": 6486,
      "jut": 6487,
      "jog": 6488,
      "jade": 6489,
      "jess": 6490,
      "jane": 6491,
      "ku": 6492,
      "ka": 6493,
      "kl": 6494,
      "ker": 6495,
      "kin": 6496,
      "kee": 6497,
      "kas": 6498,
      "lj": 6499,
      "lai": 6500,
      "lan": 6501,
      "loi": 6502,
      "lus": 6503,
      "lir": 6504,
      "lux": 6505,
      "liens": 6506,
      "mk": 6507,
      "m2": 6508,
      "md": 6509,
      "meu": 6510,
      "mit": 6511,
      "mom": 6512,
      "mille": 6513,
      "mine": 6514,
      "mss": 6515,
      "meure": 6516,
      "muni": 6517,
      "mtn": 6518,
      "mordu": 6519,
      "nc": 6520,
      "nd": 6521,
      "nus": 6522,
      "nin": 6523,
      "nar": 6524,
      "nue": 6525,
      "nana": 6526,
      "ot": 6527,
      "oo": 6528,
      "ov": 6529,
      "over": 6530,
      "oeuf": 6531,
      "owwww": 6532,
      "ombres": 6533,
      "pm": 6534,
      "pj": 6535,
      "pir": 6536,
      "ppp": 6537,
      "pil": 6538,
      "pff": 6539,
      "pist": 6540,
      "puits": 6541,
      "rc": 6542,
      "rais": 6543,
      "rot": 6544,
      "rage": 6545,
      "rendant": 6546,
      "run": 6547,
      "roses": 6548,
      "ranch": 6549,
      "sr": 6550,
      "sle": 6551,
      "sage": 6552,
      "sing": 6553,
      "spi": 6554,
      "sonné": 6555,
      "sry": 6556,
      "siss": 6557,
      "ski": 6558,
      "ts": 6559,
      "tg": 6560,
      "tf": 6561,
      "tj": 6562,
      "tam": 6563,
      "tres": 6564,
      "tonn": 6565,
      "toit": 6566,
      "tiens": 6567,
      "tolé": 6568,
      "tante": 6569,
      "tty": 6570,
      "tordu": 6571,
      "today": 6572,
      "ui": 6573,
      "uk": 6574,
      "ups": 6575,
      "venue": 6576,
      "vites": 6577,
      "ww": 6578,
      "wer": 6579,
      "won": 6580,
      "wend": 6581,
      "wat": 6582,
      "wil": 6583,
      "womp": 6584,
      "weee": 6585,
      "with": 6586,
      "waaah": 6587,
      "wolf": 6588,
      "world": 6589,
      "xxxxxxxxx": 6590,
      "yum": 6591,
      "yall": 6592,
      "yup": 6593,
      "yip": 6594,
      "zo": 6595,
      "zé": 6596,
      "zach": 6597,
      "œuf": 6598,
      "##uve": 6599,
      "##umer": 6600,
      "##ualité": 6601,
      "##roi": 6602,
      "##rure": 6603,
      "##rités": 6604,
      "##sen": 6605,
      "##tle": 6606,
      "##tol": 6607,
      "##tur": 6608,
      "##tag": 6609,
      "##tone": 6610,
      "##trait": 6611,
      "##tures": 6612,
      "##tley": 6613,
      "##tagne": 6614,
      "##ex": 6615,
      "##ères": 6616,
      "##iant": 6617,
      "##iro": 6618,
      "##iff": 6619,
      "##ifiant": 6620,
      "##izon": 6621,
      "##pn": 6622,
      "##psi": 6623,
      "##pot": 6624,
      "##page": 6625,
      "##ples": 6626,
      "##zi": 6627,
      "##gp": 6628,
      "##gant": 6629,
      "##gin": 6630,
      "##gré": 6631,
      "##gure": 6632,
      "##ging": 6633,
      "##gion": 6634,
      "##gow": 6635,
      "##gate": 6636,
      "##nient": 6637,
      "##nité": 6638,
      "##nys": 6639,
      "##nole": 6640,
      "##naie": 6641,
      "##nastique": 6642,
      "##ko": 6643,
      "##ken": 6644,
      "##kee": 6645,
      "##ape": 6646,
      "##asion": 6647,
      "##arence": 6648,
      "##ok": 6649,
      "##ope": 6650,
      "##ômes": 6651,
      "##obile": 6652,
      "##vc": 6653,
      "##vro": 6654,
      "##vité": 6655,
      "##cam": 6656,
      "##cas": 6657,
      "##cence": 6658,
      "##cins": 6659,
      "##ctions": 6660,
      "##coli": 6661,
      "##lou": 6662,
      "##lai": 6663,
      "##lus": 6664,
      "##lante": 6665,
      "##lures": 6666,
      "##lda": 6667,
      "##lair": 6668,
      "##for": 6669,
      "##filer": 6670,
      "##̂mer": 6671,
      "##̂nes": 6672,
      "##dh": 6673,
      "##dence": 6674,
      "##dka": 6675,
      "##dja": 6676,
      "##hs": 6677,
      "##hy": 6678,
      "##hen": 6679,
      "##hin": 6680,
      "##haa": 6681,
      "##hony": 6682,
      "##wk": 6683,
      "##wit": 6684,
      "##wce": 6685,
      "##wee": 6686,
      "##world": 6687,
      "##yp": 6688,
      "##yah": 6689,
      "##mir": 6690,
      "##mat": 6691,
      "##mac": 6692,
      "##more": 6693,
      "##mars": 6694,
      "##bd": 6695,
      "##bai": 6696,
      "##bie": 6697,
      "##bee": 6698,
      "##bble": 6699,
      "##bag": 6700,
      "##boy": 6701,
      "##ju": 6702,
      "##62": 6703,
      "##66": 6704,
      "##88": 6705,
      "##80": 6706,
      "##̀se": 6707,
      "##12": 6708,
      "##18": 6709,
      "##15": 6710,
      "##94": 6711,
      "##ouille": 6712,
      "##outé": 6713,
      "##rey": 6714,
      "##rêt": 6715,
      "##ntain": 6716,
      "##ery": 6717,
      "##erie": 6718,
      "##erts": 6719,
      "##étique": 6720,
      "##onds": 6721,
      "##ester": 6722,
      "jette": 6723,
      "jeez": 6724,
      "##ena": 6725,
      "##endent": 6726,
      "##lets": 6727,
      "##ourt": 6728,
      "##isé": 6729,
      "##ises": 6730,
      "##ister": 6731,
      "##isco": 6732,
      "pak": 6733,
      "paper": 6734,
      "paul": 6735,
      "##mee": 6736,
      "##mez": 6737,
      "##ani": 6738,
      "##ann": 6739,
      "##anks": 6740,
      "##aiss": 6741,
      "##aises": 6742,
      "unique": 6743,
      "##eures": 6744,
      "essent": 6745,
      "lal": 6746,
      "last": 6747,
      "laura": 6748,
      "larry": 6749,
      "lex": 6750,
      "levé": 6751,
      "lemme": 6752,
      "quelles": 6753,
      "##tel": 6754,
      "sug": 6755,
      "suré": 6756,
      "sucer": 6757,
      "aîn": 6758,
      "aigui": 6759,
      "...?": 6760,
      "enlever": 6761,
      "##tier": 6762,
      "##tian": 6763,
      "##tiens": 6764,
      "##tient": 6765,
      "##tilles": 6766,
      "##tionné": 6767,
      "##usic": 6768,
      "##vette": 6769,
      "##veaux": 6770,
      "##quais": 6771,
      "##orge": 6772,
      "##ornie": 6773,
      "pourrai": 6774,
      "pourtant": 6775,
      "pourrions": 6776,
      "éb": 6777,
      "évent": 6778,
      "épar": 6779,
      "mat": 6780,
      "mad": 6781,
      "mate": 6782,
      "mater": 6783,
      "maxim": 6784,
      "##inion": 6785,
      "##inaison": 6786,
      "aurez": 6787,
      "audition": 6788,
      "auditions": 6789,
      "##ito": 6790,
      "##itulé": 6791,
      "##ieee": 6792,
      "meh": 6793,
      "mets": 6794,
      "megan": 6795,
      "chen": 6796,
      "chers": 6797,
      "chut": 6798,
      "chine": 6799,
      "chuck": 6800,
      "chaises": 6801,
      "##lls": 6802,
      "##llite": 6803,
      "lesque": 6804,
      "##ark": 6805,
      "##arme": 6806,
      "trac": 6807,
      "##neth": 6808,
      "recu": 6809,
      "relais": 6810,
      "remi": 6811,
      "mona": 6812,
      "mondi": 6813,
      "monnaie": 6814,
      "##iennes": 6815,
      "##aun": 6816,
      "##auff": 6817,
      "##chon": 6818,
      "##chais": 6819,
      "##chée": 6820,
      "##chauff": 6821,
      "##dents": 6822,
      "plui": 6823,
      "plat": 6824,
      "plastique": 6825,
      "plate": 6826,
      "plantes": 6827,
      "dérai": 6828,
      "défi": 6829,
      "décé": 6830,
      "défe": 6831,
      "détres": 6832,
      "délai": 6833,
      "##mph": 6834,
      "##mper": 6835,
      "##mpton": 6836,
      "section": 6837,
      "selen": 6838,
      "sèche": 6839,
      "##old": 6840,
      "##oline": 6841,
      "étranger": 6842,
      "étrang": 6843,
      "étape": 6844,
      "comic": 6845,
      "temp": 6846,
      "team": 6847,
      "têt": 6848,
      "teint": 6849,
      "##rop": 6850,
      "##row": 6851,
      "##cide": 6852,
      "##cipa": 6853,
      "##cident": 6854,
      "##rié": 6855,
      "##quent": 6856,
      "##quement": 6857,
      "##quête": 6858,
      "##uira": 6859,
      "touché": 6860,
      "survé": 6861,
      "##gez": 6862,
      "##gents": 6863,
      "sill": 6864,
      "##aver": 6865,
      "##avis": 6866,
      "parlent": 6867,
      "parmi": 6868,
      "parker": 6869,
      "##alal": 6870,
      "##alite": 6871,
      "bonus": 6872,
      "journées": 6873,
      "journal": 6874,
      "##terre": 6875,
      "##ends": 6876,
      "##endra": 6877,
      "##endue": 6878,
      "##endrais": 6879,
      "duré": 6880,
      "duper": 6881,
      "dubl": 6882,
      "##rase": 6883,
      "##rations": 6884,
      "aver": 6885,
      "avat": 6886,
      "##eeeek": 6887,
      "##sib": 6888,
      "##siers": 6889,
      "##sident": 6890,
      "##réhen": 6891,
      "##amné": 6892,
      "##blement": 6893,
      "##aincu": 6894,
      "##lable": 6895,
      "amb": 6896,
      "amic": 6897,
      "amoureuse": 6898,
      "##ato": 6899,
      "##atage": 6900,
      "mails": 6901,
      "maître": 6902,
      "##ander": 6903,
      "##aster": 6904,
      "##ahe": 6905,
      "##ahh": 6906,
      "##ahahaha": 6907,
      "maintenir": 6908,
      "maintenu": 6909,
      "ouvre": 6910,
      "ours": 6911,
      "rév": 6912,
      "réé": 6913,
      "répe": 6914,
      "réces": 6915,
      "répar": 6916,
      "réinstaller": 6917,
      "références": 6918,
      "régul": 6919,
      "dick": 6920,
      "dimin": 6921,
      "diver": 6922,
      "didja": 6923,
      "##nia": 6924,
      "##erson": 6925,
      "##dies": 6926,
      "##diction": 6927,
      "##ditionné": 6928,
      "tumeur": 6929,
      "quels": 6930,
      "##pez": 6931,
      "##peaux": 6932,
      "##pecti": 6933,
      "huile": 6934,
      "bet": 6935,
      "bell": 6936,
      "bêt": 6937,
      "bella": 6938,
      "voc": 6939,
      "voeu": 6940,
      "voeux": 6941,
      "volley": 6942,
      "vodka": 6943,
      "##ffy": 6944,
      "##ffes": 6945,
      "any": 6946,
      "anxi": 6947,
      "##lia": 6948,
      "##ttra": 6949,
      "inac": 6950,
      "indé": 6951,
      "inje": 6952,
      "invent": 6953,
      "indy": 6954,
      "insec": 6955,
      "existe": 6956,
      "exécu": 6957,
      "arr": 6958,
      "arna": 6959,
      "arbres": 6960,
      "##ouvoir": 6961,
      "devait": 6962,
      "devrons": 6963,
      "##aga": 6964,
      "##agon": 6965,
      "##ente": 6966,
      "mig": 6967,
      "micro": 6968,
      "michelle": 6969,
      "apport": 6970,
      "appris": 6971,
      "apprent": 6972,
      "apporte": 6973,
      "apportez": 6974,
      "apparence": 6975,
      "##uise": 6976,
      "##endrez": 6977,
      "seriez": 6978,
      "##uet": 6979,
      "peau": 6980,
      "##onnent": 6981,
      "ampli": 6982,
      "ampères": 6983,
      "liz": 6984,
      "lier": 6985,
      "lié": 6986,
      "like": 6987,
      "liber": 6988,
      "limon": 6989,
      "cock": 6990,
      "codes": 6991,
      "côtes": 6992,
      "alfie": 6993,
      "algor": 6994,
      "alarme": 6995,
      "valeur": 6996,
      "valent": 6997,
      "##tiner": 6998,
      "malmen": 6999,
      "attray": 7000,
      "attendent": 7001,
      "##illon": 7002,
      "##illant": 7003,
      "##illir": 7004,
      "##illés": 7005,
      "##oyés": 7006,
      "##aaay": 7007,
      "##cupe": 7008,
      "##culation": 7009,
      "compt": 7010,
      "compliqué": 7011,
      "complexe": 7012,
      "compréhen": 7013,
      "euros": 7014,
      "géants": 7015,
      "##sédé": 7016,
      "écoles": 7017,
      "éclair": 7018,
      "bestie": 7019,
      "finna": 7020,
      "hel": 7021,
      "heck": 7022,
      "prét": 7023,
      "précé": 7024,
      "graines": 7025,
      "stage": 7026,
      "stop": 7027,
      "staa": 7028,
      "stations": 7029,
      "stationne": 7030,
      "stock": 7031,
      "jammin": 7032,
      "moquer": 7033,
      "movie": 7034,
      "cab": 7035,
      "cache": 7036,
      "capit": 7037,
      "capt": 7038,
      "obser": 7039,
      "obtent": 7040,
      "obsédé": 7041,
      "sale": 7042,
      "sache": 7043,
      "sachant": 7044,
      "essais": 7045,
      "restez": 7046,
      "##riss": 7047,
      "##rison": 7048,
      "ada": 7049,
      "ado": 7050,
      "adop": 7051,
      "adder": 7052,
      "admis": 7053,
      "adap": 7054,
      "admettre": 7055,
      "condu": 7056,
      "convo": 7057,
      "conditionné": 7058,
      "##mmmmm": 7059,
      "espè": 7060,
      "some": 7061,
      "socal": 7062,
      "ends": 7063,
      "soucier": 7064,
      "sony": 7065,
      "amusés": 7066,
      "aper": 7067,
      "##lore": 7068,
      "disais": 7069,
      "contenu": 7070,
      "contrô": 7071,
      "contrat": 7072,
      "acct": 7073,
      "pensée": 7074,
      "essayons": 7075,
      "phar": 7076,
      "phila": 7077,
      "phrase": 7078,
      "puissions": 7079,
      "mark": 7080,
      "marre": 7081,
      "marques": 7082,
      "marqué": 7083,
      "##ings": 7084,
      "##ingt": 7085,
      "persua": 7086,
      "perspecti": 7087,
      "chère": 7088,
      "cheese": 7089,
      "frites": 7090,
      "friends": 7091,
      "tha": 7092,
      "thang": 7093,
      "thats": 7094,
      "##xxx": 7095,
      "allen": 7096,
      "allais": 7097,
      "allume": 7098,
      "allongé": 7099,
      "terme": 7100,
      "terne": 7101,
      "courage": 7102,
      "courriers": 7103,
      "garage": 7104,
      "ferez": 7105,
      "détestes": 7106,
      "détesté": 7107,
      "intim": 7108,
      "intitulé": 7109,
      "obtenons": 7110,
      "somnole": 7111,
      "vieil": 7112,
      "##dément": 7113,
      "sentait": 7114,
      "noes": 7115,
      "##???": 7116,
      "revue": 7117,
      "she": 7118,
      "shos": 7119,
      "shakes": 7120,
      "sharon": 7121,
      "shucks": 7122,
      "shirts": 7123,
      "joueur": 7124,
      "rares": 7125,
      "radar": 7126,
      "##ally": 7127,
      "pleur": 7128,
      "ordu": 7129,
      "orange": 7130,
      "dernièrement": 7131,
      "##duation": 7132,
      "appelant": 7133,
      "abris": 7134,
      "abatt": 7135,
      "abond": 7136,
      "miséra": 7137,
      "tardive": 7138,
      "awwwwwww": 7139,
      "proches": 7140,
      "coule": 7141,
      "couche": 7142,
      "couteau": 7143,
      "mén": 7144,
      "mélo": 7145,
      "méth": 7146,
      "ennuyeuses": 7147,
      "prennent": 7148,
      "saviez": 7149,
      "facilement": 7150,
      "fawce": 7151,
      "supporter": 7152,
      "carottes": 7153,
      "avantages": 7154,
      "##onctionnements": 7155,
      "salope": 7156,
      "##gnent": 7157,
      "##addy": 7158,
      "facteur": 7159,
      "factures": 7160,
      "road": 7161,
      "roby": 7162,
      "graduation": 7163,
      "visité": 7164,
      "##the": 7165,
      "##tha": 7166,
      "##this": 7167,
      "arrivée": 7168,
      "partagé": 7169,
      "partagez": 7170,
      "incon": 7171,
      "ongle": 7172,
      "##nson": 7173,
      "adorent": 7174,
      "assie": 7175,
      "assist": 7176,
      "##break": 7177,
      "muscle": 7178,
      "musiques": 7179,
      "##gées": 7180,
      "utilisent": 7181,
      "utilisateur": 7182,
      "imac": 7183,
      "##vég": 7184,
      "##vées": 7185,
      "dépens": 7186,
      "dépression": 7187,
      "yayy": 7188,
      "##zzle": 7189,
      "terminés": 7190,
      "terminator": 7191,
      "pub": 7192,
      "102": 7193,
      "10h": 7194,
      "tapis": 7195,
      "crav": 7196,
      "cruel": 7197,
      "fermer": 7198,
      "fermée": 7199,
      "porche": 7200,
      "roue": 7201,
      "roulant": 7202,
      "okay": 7203,
      "prières": 7204,
      "rentrez": 7205,
      "bruy": 7206,
      "free": 7207,
      "vérifiant": 7208,
      "##ked": 7209,
      "##abilité": 7210,
      "repose": 7211,
      "reparti": 7212,
      "instr": 7213,
      "filleul": 7214,
      "hockey": 7215,
      "voyages": 7216,
      "envoyant": 7217,
      "casque": 7218,
      "cassée": 7219,
      "jouera": 7220,
      "##eeeeeee": 7221,
      "propres": 7222,
      "proposition": 7223,
      "ordinateurs": 7224,
      "nomin": 7225,
      "cherché": 7226,
      "clair": 7227,
      "##aaaaaa": 7228,
      "intervention": 7229,
      "internation": 7230,
      "biologie": 7231,
      "bikin": 7232,
      "boue": 7233,
      "bouill": 7234,
      "boules": 7235,
      "bouger": 7236,
      "effac": 7237,
      "rendrai": 7238,
      "vernis": 7239,
      "##ggie": 7240,
      "##gging": 7241,
      "agir": 7242,
      "agacé": 7243,
      "ahah": 7244,
      "nico": 7245,
      "posse": 7246,
      "séjour": 7247,
      "sépar": 7248,
      "soigner": 7249,
      "charlie": 7250,
      "chargée": 7251,
      "chargeur": 7252,
      "charlot": 7253,
      "partici": 7254,
      "found": 7255,
      "sauce": 7256,
      "sauvage": 7257,
      "scoo": 7258,
      "scient": 7259,
      "scrat": 7260,
      "script": 7261,
      "vents": 7262,
      "ventes": 7263,
      "combats": 7264,
      "combinaison": 7265,
      "profond": 7266,
      "professionne": 7267,
      "pointille": 7268,
      "moteur": 7269,
      "sourcils": 7270,
      "corvées": 7271,
      "attendons": 7272,
      "manquerai": 7273,
      "vérité": 7274,
      "##berg": 7275,
      "mariages": 7276,
      "pile": 7277,
      "pires": 7278,
      "piano": 7279,
      "spor": 7280,
      "##aks": 7281,
      "##akak": 7282,
      "espn": 7283,
      "rêver": 7284,
      "habillé": 7285,
      "habite": 7286,
      "habiller": 7287,
      "emballer": 7288,
      "hug": 7289,
      "passerez": 7290,
      "difficul": 7291,
      "dates": 7292,
      "const": 7293,
      "consom": 7294,
      "constr": 7295,
      "consomme": 7296,
      "porto": 7297,
      "portug": 7298,
      "déconne": 7299,
      "occuper": 7300,
      "potent": 7301,
      "poker": 7302,
      "prison": 7303,
      "débrou": 7304,
      "balle": 7305,
      "bât": 7306,
      "guin": 7307,
      "guys": 7308,
      "juli": 7309,
      "sorties": 7310,
      "gâche": 7311,
      "nuts": 7312,
      "nuggets": 7313,
      "privés": 7314,
      "##oxication": 7315,
      "malheureuse": 7316,
      "bright": 7317,
      "bridge": 7318,
      "demandes": 7319,
      "blagues": 7320,
      "blâmer": 7321,
      "nourris": 7322,
      "riv": 7323,
      "##buer": 7324,
      "chiennes": 7325,
      "restent": 7326,
      "étudié": 7327,
      "affaire": 7328,
      "booo": 7329,
      "boohoo": 7330,
      "civ": 7331,
      "dames": 7332,
      "soupire": 7333,
      "volant": 7334,
      "voisins": 7335,
      "well": 7336,
      "écriv": 7337,
      "écrivent": 7338,
      "classement": 7339,
      "grille": 7340,
      "griffes": 7341,
      "condamné": 7342,
      "bulle": 7343,
      "buffy": 7344,
      "barrage": 7345,
      "canal": 7346,
      "canard": 7347,
      "solo": 7348,
      "solaire": 7349,
      "solide": 7350,
      "souvenu": 7351,
      "​​...": 7352,
      "chatons": 7353,
      "créd": 7354,
      "get": 7355,
      "gères": 7356,
      "george": 7357,
      "grossiers": 7358,
      "pouces": 7359,
      "samedis": 7360,
      "publié": 7361,
      "smith": 7362,
      "wooo": 7363,
      "collé": 7364,
      "collage": 7365,
      "danie": 7366,
      "jonathan": 7367,
      "veau": 7368,
      "parent": 7369,
      "##ield": 7370,
      "délicieuse": 7371,
      "tweeterfo": 7372,
      "croiser": 7373,
      "croisière": 7374,
      "?!?": 7375,
      "calif": 7376,
      "cuisson": 7377,
      "livrer": 7378,
      "collection": 7379,
      "12h": 7380,
      "héy": 7381,
      "hélas": 7382,
      "what": 7383,
      "whop": 7384,
      "textes": 7385,
      "extéri": 7386,
      "crêpes": 7387,
      "rues": 7388,
      "ruée": 7389,
      "chocs": 7390,
      "adele": 7391,
      "##nase": 7392,
      "##lève": 7393,
      "central": 7394,
      "continué": 7395,
      "##rrrrrr": 7396,
      "promo": 7397,
      "promouvoir": 7398,
      "blink": 7399,
      "blues": 7400,
      "emil": 7401,
      "emails": 7402,
      "##̂chez": 7403,
      "quittera": 7404,
      "détai": 7405,
      "bienvenu": 7406,
      "bienvenus": 7407,
      "jake": 7408,
      "jacob": 7409,
      "yea": 7410,
      "yey": 7411,
      "##ifs": 7412,
      "##ift": 7413,
      "panda": 7414,
      "parcour": 7415,
      "génération": 7416,
      "intérêt": 7417,
      "culte": 7418,
      "culture": 7419,
      "névro": 7420,
      "mention": 7421,
      "menthe": 7422,
      "##cepti": 7423,
      "cute": 7424,
      "docu": 7425,
      "docteur": 7426,
      "chick": 7427,
      "chiots": 7428,
      "résout": 7429,
      "résolu": 7430,
      "adepte": 7431,
      "boissons": 7432,
      "bristol": 7433,
      "crap": 7434,
      "pousse": 7435,
      "webcam": 7436,
      "nettoyant": 7437,
      "ahhhhh": 7438,
      "fantas": 7439,
      "fantômes": 7440,
      "##kate": 7441,
      "soufflé": 7442,
      "clip": 7443,
      "naw": 7444,
      "napa": 7445,
      "psp": 7446,
      "ps3": 7447,
      "stev": 7448,
      "##nya": 7449,
      "aimant": 7450,
      "aimait": 7451,
      "##oria": 7452,
      "équipes": 7453,
      "mangez": 7454,
      "!!!!!!!!": 7455,
      "échoue": 7456,
      "gymnastique": 7457,
      "gymnase": 7458,
      "dessins": 7459,
      "annuaire": 7460,
      "électri": 7461,
      "awh": 7462,
      "buste": 7463,
      "dossier": 7464,
      "erreurs": 7465,
      "lisa": 7466,
      "##ologue": 7467,
      "anciens": 7468,
      "##ographie": 7469,
      "effrayants": 7470,
      "débutant": 7471,
      "doigt": 7472,
      "mathématique": 7473,
      "cousins": 7474,
      "faufiler": 7475,
      "fraise": 7476,
      "léger": 7477,
      "opinion": 7478,
      "champion": 7479,
      "champions": 7480,
      "champagne": 7481,
      "préférées": 7482,
      "actualité": 7483,
      "connecter": 7484,
      "moyens": 7485,
      "swee": 7486,
      "swift": 7487,
      "sortons": 7488,
      "lecteurs": 7489,
      "rejoint": 7490,
      "##alisé": 7491,
      "réparée": 7492,
      "##culteurs": 7493,
      "disparaissent": 7494,
      "alice": 7495,
      "lily": 7496,
      "mcm": 7497,
      "##essa": 7498,
      "évan": 7499,
      "trouverez": 7500,
      "appartient": 7501,
      "apprends": 7502,
      "hahahah": 7503,
      "restants": 7504,
      "fonctionnerait": 7505,
      "##yyyyyy": 7506,
      "brocoli": 7507,
      "couvre": 7508,
      "great": 7509,
      "grève": 7510,
      "obtiendrez": 7511,
      "babys": 7512,
      "numérique": 7513,
      "##cerie": 7514,
      "défaut": 7515,
      "commerciale": 7516,
      "techni": 7517,
      "dirigé": 7518,
      "prendrai": 7519,
      "âgée": 7520,
      "banjo": 7521,
      "renvers": 7522,
      "##morning": 7523,
      "merveilleuse": 7524,
      "attraction": 7525,
      "douloureuse": 7526,
      "imagine": 7527,
      "imaginez": 7528,
      "informé": 7529,
      "fourn": 7530,
      "noirs": 7531,
      "yaay": 7532,
      "##trip": 7533,
      "engour": 7534,
      "engagement": 7535,
      "missin": 7536,
      "employés": 7537,
      "johnny": 7538,
      "publierai": 7539,
      "balles": 7540,
      "cycle": 7541,
      "fumer": 7542,
      "isp": 7543,
      "singe": 7544,
      "url": 7545,
      "##aoké": 7546,
      "##board": 7547,
      "enregistré": 7548,
      "choisissez": 7549,
      "étonnants": 7550,
      "étonnantes": 7551,
      "silvers": 7552,
      "promène": 7553,
      "francisco": 7554,
      "##zzzzzzzz": 7555,
      "américains": 7556,
      "inquiéter": 7557,
      "footy": 7558,
      "raconte": 7559,
      "tableau": 7560,
      "ughhhh": 7561,
      "vendeurs": 7562,
      "redouté": 7563,
      "retire": 7564,
      "tentatives": 7565,
      "android": 7566,
      "anderson": 7567,
      "accidente": 7568,
      "météor": 7569,
      "##aaaaaaaaaaaaaaaa": 7570,
      "##ommandé": 7571,
      "citron": 7572,
      "girls": 7573,
      "norvég": 7574,
      "prati": 7575,
      "venons": 7576,
      "wave": 7577,
      "wake": 7578,
      "enseigner": 7579,
      "descendez": 7580,
      "limites": 7581,
      "orgas": 7582,
      "principal": 7583,
      "principa": 7584,
      "instantan": 7585,
      "##uuuuu": 7586,
      "guerres": 7587,
      "célébrer": 7588,
      "célébrité": 7589,
      "célébrités": 7590,
      "250": 7591,
      "leno": 7592,
      "langage": 7593,
      "méritent": 7594,
      "pink": 7595,
      "skool": 7596,
      "##titu": 7597,
      "amené": 7598,
      "rappro": 7599,
      "supprimé": 7600,
      "assurer": 7601,
      "arrêtant": 7602,
      "scolar": 7603,
      "scolaires": 7604,
      "##dddddddd": 7605,
      "changements": 7606,
      "confirme": 7607,
      "transformé": 7608,
      "transformers": 7609,
      "achat": 7610,
      "mountain": 7611,
      "romant": 7612,
      "valait": 7613,
      "réseaux": 7614,
      "récupéré": 7615,
      "ashton": 7616,
      "aspiré": 7617,
      "compétition": 7618,
      "europe": 7619,
      "eurovision": 7620,
      "apprécient": 7621,
      "anti": 7622,
      "anthony": 7623,
      "bretagne": 7624,
      "frick": 7625,
      "friggin": 7626,
      "karma": 7627,
      "karaoké": 7628,
      "lumières": 7629,
      "sittin": 7630,
      "##mètre": 7631,
      "décente": 7632,
      "signal": 7633,
      "durera": 7634,
      "régal": 7635,
      "##diatement": 7636,
      "hawaï": 7637,
      "fonctionnalité": 7638,
      "reprendre": 7639,
      "correspondre": 7640,
      "concerne": 7641,
      "résultat": 7642,
      "française": 7643,
      "hilarantes": 7644,
      "fenêtres": 7645,
      "cookies": 7646,
      "elaine": 7647,
      "elvis": 7648,
      "glorieux": 7649,
      "populaire": 7650,
      "pierres": 7651,
      "passionnante": 7652,
      "religion": 7653,
      "##ternité": 7654,
      "dunkin": 7655,
      "réservation": 7656,
      "victoire": 7657,
      "victoria": 7658,
      "ressembl": 7659,
      "envoient": 7660,
      "accepte": 7661,
      "permettra": 7662,
      "gradation": 7663,
      "correct": 7664,
      "embarquement": 7665,
      "annoncer": 7666,
      "kickass": 7667,
      "britt": 7668,
      "britney": 7669,
      "circulation": 7670,
      "kenny": 7671,
      "nooooooo": 7672,
      "slam": 7673,
      "tartes": 7674,
      "vanille": 7675,
      "vomissant": 7676,
      "édité": 7677,
      "tranquille": 7678,
      "placard": 7679,
      "surviv": 7680,
      "survivre": 7681,
      "paramètres": 7682,
      "anneau": 7683,
      "éclat": 7684,
      "##ctueux": 7685,
      "adresse": 7686,
      "reviendra": 7687,
      "reviendrai": 7688,
      "accueillir": 7689,
      "baskets": 7690,
      "considérez": 7691,
      "blackberry": 7692,
      "poussin": 7693,
      "poussins": 7694,
      "discussions": 7695,
      "cauchemars": 7696,
      "goûte": 7697,
      "goûter": 7698,
      "glissé": 7699,
      "hyp": 7700,
      "##axax": 7701,
      "épicerie": 7702,
      "chuch": 7703,
      "secoué": 7704,
      "##rasses": 7705,
      "convos": 7706,
      "envisagez": 7707,
      "photographie": 7708,
      "accompli": 7709,
      "sûrement": 7710,
      "dépendance": 7711,
      "cruz": 7712,
      "tombée": 7713,
      "corrige": 7714,
      "bâillement": 7715,
      "bâtiment": 7716,
      "stephen": 7717,
      "navigateur": 7718,
      "talentueux": 7719,
      "psycho": 7720,
      "événements": 7721,
      "emprunter": 7722,
      "emprunté": 7723,
      "bandes": 7724,
      "bowling": 7725,
      "geez": 7726,
      "morsure": 7727,
      "morsures": 7728,
      "naman": 7729,
      "tém": 7730,
      "tisdale": 7731,
      "wankers": 7732,
      "lauren": 7733,
      "laurens": 7734,
      "traiter": 7735,
      "dépêcher": 7736,
      "parking": 7737,
      "productif": 7738,
      "comète": 7739,
      "grincheux": 7740,
      "modifications": 7741,
      "adulte": 7742,
      "adultes": 7743,
      "chapitre": 7744,
      "chapitres": 7745,
      "bénédiction": 7746,
      ".....................": 7747,
      "reproche": 7748,
      "hollande": 7749,
      "verrouillage": 7750,
      "profonde": 7751,
      "profondément": 7752,
      "positi": 7753,
      "positif": 7754,
      "téléchargements": 7755,
      "volonté": 7756,
      "clignotement": 7757,
      "naturel": 7758,
      "téléphonique": 7759,
      "encourager": 7760,
      "coiffure": 7761,
      "tmrw": 7762,
      "dactylographié": 7763,
      "kardashiens": 7764,
      "origine": 7765,
      "bnp": 7766,
      "bancaire": 7767,
      "bambooz": 7768,
      "cavs": 7769,
      "java": 7770,
      "moustiques": 7771,
      "nationale": 7772,
      "pilotes": 7773,
      "school": 7774,
      "titre": 7775,
      "viendrais": 7776,
      "patron": 7777,
      "ennemis": 7778,
      "##tionnel": 7779,
      "élégant": 7780,
      "redémar": 7781,
      "remonter": 7782,
      "##alyse": 7783,
      "amazon": 7784,
      "outil": 7785,
      "progrès": 7786,
      "andrew": 7787,
      "sembler": 7788,
      "prévisions": 7789,
      "soulagement": 7790,
      "agriculteurs": 7791,
      "nikki": 7792,
      "sévère": 7793,
      "messagerie": 7794,
      "solution": 7795,
      "thérapie": 7796,
      "suffisant": 7797,
      "cupcakes": 7798,
      "portefeuille": 7799,
      "évaluation": 7800,
      "suspendu": 7801,
      "déchirant": 7802,
      "tatouage": 7803,
      "amygdalite": 7804,
      "mexicaine": 7805,
      "arachide": 7806,
      "gaufres": 7807,
      "miracle": 7808,
      "360": 7809,
      "cordon": 7810,
      "dorment": 7811,
      "fuseau": 7812,
      "glasgow": 7813,
      "jason": 7814,
      "kathy": 7815,
      "munster": 7816,
      "mensonges": 7817,
      "nouilles": 7818,
      "srsly": 7819,
      "washington": 7820,
      "zzzzzz": 7821,
      "patrick": 7822,
      "escaliers": 7823,
      "sushis": 7824,
      "ailleurs": 7825,
      "évidemment": 7826,
      "rejeté": 7827,
      "manchester": 7828,
      "twilight": 7829,
      "ouvrir": 7830,
      "réduction": 7831,
      "divertissement": 7832,
      "procras": 7833,
      "prodige": 7834,
      "angleterre": 7835,
      "injuste": 7836,
      "deviennent": 7837,
      "appuyez": 7838,
      "serviettes": 7839,
      "pelucheux": 7840,
      "alternative": 7841,
      "twitterfon": 7842,
      "écureuil": 7843,
      "précommandé": 7844,
      "préoccupe": 7845,
      "jambières": 7846,
      "chaleure": 7847,
      "impuissant": 7848,
      "orlando": 7849,
      "communication": 7850,
      "inconnu": 7851,
      "achèter": 7852,
      "déposer": 7853,
      "autoroute": 7854,
      "inspirant": 7855,
      "conserv": 7856,
      "gâchis": 7857,
      "préférerais": 7858,
      "smoothie": 7859,
      "dangereux": 7860,
      "cuisinier": 7861,
      "exploit": 7862,
      "exploser": 7863,
      "favorables": 7864,
      "champignons": 7865,
      "haricots": 7866,
      "followers": 7867,
      "oreillers": 7868,
      "immédiatement": 7869,
      "satisfait": 7870,
      "compagnons": 7871,
      "organiser": 7872,
      "cinquième": 7873,
      "costume": 7874,
      "williams": 7875,
      "similaire": 7876,
      "distributeur": 7877,
      "gaspillage": 7878,
      "trébuché": 7879,
      "exercice": 7880,
      "wolverine": 7881,
      "2nyt": 7882,
      "atelier": 7883,
      "agneau": 7884,
      "beurre": 7885,
      "buvant": 7886,
      "baguettes": 7887,
      "cinema": 7888,
      "dingue": 7889,
      "dysfonctionnements": 7890,
      "fyi": 7891,
      "illég": 7892,
      "jogging": 7893,
      "lirai": 7894,
      "luxu": 7895,
      "oeufs": 7896,
      "sissy": 7897,
      "tresses": 7898,
      "tonnes": 7899,
      "ttyl": 7900,
      "vitesse": 7901,
      "zélande": 7902,
      "suréval": 7903,
      "aînés": 7904,
      "aiguilles": 7905,
      "maximum": 7906,
      "remix": 7907,
      "mondiale": 7908,
      "pluies": 7909,
      "défectueux": 7910,
      "détresse": 7911,
      "selena": 7912,
      "étranges": 7913,
      "survécu": 7914,
      "dublin": 7915,
      "avatar": 7916,
      "répète": 7917,
      "récession": 7918,
      "diminué": 7919,
      "inventé": 7920,
      "insectes": 7921,
      "liberté": 7922,
      "limonade": 7923,
      "cocktail": 7924,
      "algorith": 7925,
      "malmené": 7926,
      "compréhension": 7927,
      "stationnement": 7928,
      "capitaine": 7929,
      "obtention": 7930,
      "adderall": 7931,
      "conducteur": 7932,
      "somnolent": 7933,
      "ordures": 7934,
      "abattu": 7935,
      "fawcett": 7936,
      "bruyant": 7937,
      "instru": 7938,
      "internationaux": 7939,
      "charlotte": 7940,
      "scratch": 7941,
      "difficulté": 7942,
      "débrouiller": 7943,
      "tweeterfollow": 7944,
      "californie": 7945,
      "accidentellement": 7946,
      "ressemblait": 7947,
      "bamboozle": 7948,
      "!:": 7949,
      "!.": 7950,
      "!,": 7951,
      "!\"": 7952,
      "!?!": 7953,
      "%.": 7954,
      "':": 7955,
      "'.": 7956,
      "(?": 7957,
      "(...": 7958,
      "(((((": 7959,
      ")!": 7960,
      "*,": 7961,
      "+,": 7962,
      ",.": 7963,
      ".)": 7964,
      "05": 7965,
      "1h30": 7966,
      "2y": 7967,
      "26": 7968,
      "29": 7969,
      "2gh": 7970,
      "2day": 7971,
      "2mo": 7972,
      "3e": 7973,
      "300": 7974,
      "330": 7975,
      "333": 7976,
      "3oh": 7977,
      "4e": 7978,
      "4a": 7979,
      "42": 7980,
      "4h": 7981,
      "43": 7982,
      "41": 7983,
      "52": 7984,
      "5h": 7985,
      "56": 7986,
      "53": 7987,
      "51": 7988,
      "65": 7989,
      "697": 7990,
      "7b": 7991,
      "76": 7992,
      "75": 7993,
      "700": 7994,
      "8e": 7995,
      "8a": 7996,
      "8h": 7997,
      "8h30": 7998,
      "9h": 7999,
      ":.": 8000,
      ":?": 8001,
      ";]": 8002,
      ";,": 8003,
      ";!": 8004,
      "@!": 8005,
      "aah": 8006,
      "âme": 8007,
      "aaaah": 8008,
      "amène": 8009,
      "aali": 8010,
      "bk": 8011,
      "b2": 8012,
      "bw": 8013,
      "bau": 8014,
      "bend": 8015,
      "bli": 8016,
      "btt": 8017,
      "bose": 8018,
      "boooo": 8019,
      "bod": 8020,
      "buu": 8021,
      "bise": 8022,
      "book": 8023,
      "biiii": 8024,
      "boss": 8025,
      "bomb": 8026,
      "bogue": 8027,
      "cn": 8028,
      "cb": 8029,
      "cnt": 8030,
      "cle": 8031,
      "cage": 8032,
      "cut": 8033,
      "cité": 8034,
      "coooo": 8035,
      "crée": 8036,
      "cnn": 8037,
      "cmon": 8038,
      "cils": 8039,
      "cuuuu": 8040,
      "cba": 8041,
      "céder": 8042,
      "dz": 8043,
      "dl": 8044,
      "dy": 8045,
      "dre": 8046,
      "dus": 8047,
      "die": 8048,
      "dsi": 8049,
      "dot": 8050,
      "dose": 8051,
      "doc": 8052,
      "dats": 8053,
      "doris": 8054,
      "dyn": 8055,
      "eq": 8056,
      "e3": 8057,
      "ear": 8058,
      "eee": 8059,
      "ès": 8060,
      "eww": 8061,
      "emme": 8062,
      "eye": 8063,
      "ego": 8064,
      "eva": 8065,
      "ellen": 8066,
      "ellis": 8067,
      "eeeeeeee": 8068,
      "fd": 8069,
      "foi": 8070,
      "feux": 8071,
      "fee": 8072,
      "fat": 8073,
      "fand": 8074,
      "fur": 8075,
      "fonc": 8076,
      "féri": 8077,
      "fone": 8078,
      "ford": 8079,
      "fic": 8080,
      "fleur": 8081,
      "flè": 8082,
      "fish": 8083,
      "fala": 8084,
      "foyer": 8085,
      "gk": 8086,
      "g1": 8087,
      "ger": 8088,
      "gus": 8089,
      "gui": 8090,
      "gos": 8091,
      "goin": 8092,
      "gut": 8093,
      "gpa": 8094,
      "gid": 8095,
      "ghe": 8096,
      "gomm": 8097,
      "gwe": 8098,
      "gator": 8099,
      "gouver": 8100,
      "hs": 8101,
      "hd": 8102,
      "hh": 8103,
      "hen": 8104,
      "hour": 8105,
      "hit": 8106,
      "hos": 8107,
      "hand": 8108,
      "htt": 8109,
      "hord": 8110,
      "huu": 8111,
      "him": 8112,
      "hym": 8113,
      "hanter": 8114,
      "if": 8115,
      "ich": 8116,
      "ice": 8117,
      "iam": 8118,
      "irai": 8119,
      "itin": 8120,
      "irais": 8121,
      "ick": 8122,
      "irait": 8123,
      "ironique": 8124,
      "itttt": 8125,
      "jg": 8126,
      "jd": 8127,
      "jai": 8128,
      "joi": 8129,
      "jui": 8130,
      "jac": 8131,
      "juv": 8132,
      "jail": 8133,
      "jana": 8134,
      "joint": 8135,
      "jury": 8136,
      "kz": 8137,
      "kh": 8138,
      "kre": 8139,
      "kro": 8140,
      "kir": 8141,
      "kot": 8142,
      "kop": 8143,
      "kill": 8144,
      "kore": 8145,
      "kel": 8146,
      "kala": 8147,
      "knight": 8148,
      "kilo": 8149,
      "kansas": 8150,
      "kourt": 8151,
      "lb": 8152,
      "lut": 8153,
      "line": 8154,
      "lord": 8155,
      "lances": 8156,
      "looo": 8157,
      "lori": 8158,
      "loyer": 8159,
      "mh": 8160,
      "mw": 8161,
      "maire": 8162,
      "mouve": 8163,
      "mph": 8164,
      "mord": 8165,
      "mout": 8166,
      "myy": 8167,
      "murs": 8168,
      "muuuuu": 8169,
      "nv": 8170,
      "nj": 8171,
      "neu": 8172,
      "nas": 8173,
      "noy": 8174,
      "nort": 8175,
      "nut": 8176,
      "n00": 8177,
      "niss": 8178,
      "noires": 8179,
      "ness": 8180,
      "nash": 8181,
      "noix": 8182,
      "nba": 8183,
      "nxt": 8184,
      "og": 8185,
      "o2": 8186,
      "one": 8187,
      "oli": 8188,
      "oww": 8189,
      "oct": 8190,
      "omb": 8191,
      "ops": 8192,
      "ooc": 8193,
      "oye": 8194,
      "orage": 8195,
      "pt": 8196,
      "py": 8197,
      "pone": 8198,
      "ppi": 8199,
      "pore": 8200,
      "prit": 8201,
      "poire": 8202,
      "pomm": 8203,
      "paie": 8204,
      "psss": 8205,
      "pente": 8206,
      "qt": 8207,
      "rs": 8208,
      "rb": 8209,
      "rer": 8210,
      "rus": 8211,
      "roo": 8212,
      "rsi": 8213,
      "rain": 8214,
      "rag": 8215,
      "rense": 8216,
      "rail": 8217,
      "rly": 8218,
      "sv": 8219,
      "sb": 8220,
      "sme": 8221,
      "squ": 8222,
      "sri": 8223,
      "sain": 8224,
      "score": 8225,
      "saa": 8226,
      "slo": 8227,
      "snu": 8228,
      "sper": 8229,
      "sist": 8230,
      "spar": 8231,
      "sna": 8232,
      "sooooo": 8233,
      "seni": 8234,
      "sooooooooooo": 8235,
      "saga": 8236,
      "skate": 8237,
      "tn": 8238,
      "t1": 8239,
      "tai": 8240,
      "tch": 8241,
      "too": 8242,
      "tand": 8243,
      "tac": 8244,
      "tonne": 8245,
      "tient": 8246,
      "tire": 8247,
      "tad": 8248,
      "tenu": 8249,
      "tenez": 8250,
      "tox": 8251,
      "tori": 8252,
      "tnx": 8253,
      "tank": 8254,
      "town": 8255,
      "tirez": 8256,
      "tiendrai": 8257,
      "ut": 8258,
      "uv": 8259,
      "u2": 8260,
      "unt": 8261,
      "upp": 8262,
      "ugg": 8263,
      "uhhh": 8264,
      "uuu": 8265,
      "ubu": 8266,
      "uhhhh": 8267,
      "ult": 8268,
      "vm": 8269,
      "vus": 8270,
      "vag": 8271,
      "vanc": 8272,
      "vendez": 8273,
      "vanter": 8274,
      "vpn": 8275,
      "vingt": 8276,
      "wk": 8277,
      "wy": 8278,
      "wnt": 8279,
      "wen": 8280,
      "wis": 8281,
      "wri": 8282,
      "wont": 8283,
      "wal": 8284,
      "was": 8285,
      "wth": 8286,
      "whe": 8287,
      "wins": 8288,
      "weeee": 8289,
      "wym": 8290,
      "wana": 8291,
      "wack": 8292,
      "waaa": 8293,
      "wagon": 8294,
      "waaaaaaaaaaaaaaaa": 8295,
      "x1": 8296,
      "yeee": 8297,
      "yada": 8298,
      "yaaaay": 8299,
      "yaaay": 8300,
      "ze": 8301,
      "zac": 8302,
      "zzz": 8303,
      "zones": 8304,
      "zomb": 8305,
      "zomg": 8306,
      "~~": 8307,
      "»?": 8308,
      "##uter": 8309,
      "##upp": 8310,
      "##uff": 8311,
      "##ubli": 8312,
      "##uze": 8313,
      "##ror": 8314,
      "##rouve": 8315,
      "##roup": 8316,
      "##rance": 8317,
      "##ring": 8318,
      "##rout": 8319,
      "##rants": 8320,
      "##rante": 8321,
      "##rures": 8322,
      "##riend": 8323,
      "##sy": 8324,
      "##suit": 8325,
      "##ssé": 8326,
      "##tf": 8327,
      "##tti": 8328,
      "##tra": 8329,
      "##tat": 8330,
      "##tation": 8331,
      "##tris": 8332,
      "##tude": 8333,
      "##tration": 8334,
      "##toph": 8335,
      "##ey": 8336,
      "##ette": 8337,
      "##èle": 8338,
      "##ède": 8339,
      "##ians": 8340,
      "##ider": 8341,
      "##ints": 8342,
      "##itions": 8343,
      "##ibles": 8344,
      "##py": 8345,
      "##pre": 8346,
      "##pant": 8347,
      "##pin": 8348,
      "##pro": 8349,
      "##poo": 8350,
      "##pos": 8351,
      "##pop": 8352,
      "##ply": 8353,
      "##pool": 8354,
      "##point": 8355,
      "##zo": 8356,
      "##zone": 8357,
      "##gre": 8358,
      "##gam": 8359,
      "##gots": 8360,
      "##nan": 8361,
      "##nais": 8362,
      "##nom": 8363,
      "##nci": 8364,
      "##nés": 8365,
      "##naux": 8366,
      "##nnel": 8367,
      "##kn": 8368,
      "##kis": 8369,
      "##keu": 8370,
      "##kill": 8371,
      "##king": 8372,
      "##kies": 8373,
      "##keee": 8374,
      "##kuts": 8375,
      "##kansas": 8376,
      "##adi": 8377,
      "##ache": 8378,
      "##aps": 8379,
      "##aches": 8380,
      "##ov": 8381,
      "##oon": 8382,
      "##ome": 8383,
      "##ove": 8384,
      "##oche": 8385,
      "##off": 8386,
      "##orés": 8387,
      "##oaks": 8388,
      "##vs": 8389,
      "##vv": 8390,
      "##vor": 8391,
      "##vir": 8392,
      "##voy": 8393,
      "##vest": 8394,
      "##vato": 8395,
      "##cl": 8396,
      "##cons": 8397,
      "##cla": 8398,
      "##cat": 8399,
      "##cens": 8400,
      "##ça": 8401,
      "##cue": 8402,
      "##cés": 8403,
      "##cord": 8404,
      "##ctez": 8405,
      "##cade": 8406,
      "##cript": 8407,
      "##lk": 8408,
      "##lb": 8409,
      "##lit": 8410,
      "##lons": 8411,
      "##lers": 8412,
      "##lph": 8413,
      "##lone": 8414,
      "##luck": 8415,
      "##lots": 8416,
      "##lene": 8417,
      "##louse": 8418,
      "##lancer": 8419,
      "##lusion": 8420,
      "##loyé": 8421,
      "##far": 8422,
      "##fique": 8423,
      "##fron": 8424,
      "##forme": 8425,
      "##fish": 8426,
      "##from": 8427,
      "##field": 8428,
      "##friend": 8429,
      "##2k": 8430,
      "##23": 8431,
      "##dl": 8432,
      "##dle": 8433,
      "##dant": 8434,
      "##dam": 8435,
      "##dois": 8436,
      "##dance": 8437,
      "##dog": 8438,
      "##donné": 8439,
      "##dora": 8440,
      "##̧oire": 8441,
      "##hr": 8442,
      "##hes": 8443,
      "##han": 8444,
      "##hip": 8445,
      "##h11": 8446,
      "##wt": 8447,
      "##wl": 8448,
      "##wd": 8449,
      "##war": 8450,
      "##witter": 8451,
      "##wort": 8452,
      "##wls": 8453,
      "##whi": 8454,
      "##yes": 8455,
      "##mit": 8456,
      "##mie": 8457,
      "##mas": 8458,
      "##mure": 8459,
      "##mag": 8460,
      "##mique": 8461,
      "##mone": 8462,
      "##mies": 8463,
      "##bz": 8464,
      "##bc": 8465,
      "##bon": 8466,
      "##bol": 8467,
      "##bat": 8468,
      "##blé": 8469,
      "##bation": 8470,
      "##blo": 8471,
      "##bing": 8472,
      "##bert": 8473,
      "##bron": 8474,
      "##back": 8475,
      "##bank": 8476,
      "##bara": 8477,
      "##jie": 8478,
      "##64": 8479,
      "##34": 8480,
      "##8z": 8481,
      "##̀dre": 8482,
      "##xs": 8483,
      "##182": 8484,
      "##01": 8485,
      "##̃o": 8486,
      "##4s": 8487,
      "##4e": 8488,
      "##̈s": 8489,
      "##̈nci": 8490,
      "##oul": 8491,
      "##oule": 8492,
      "##outs": 8493,
      "##aide": 8494,
      "##ree": 8495,
      "##rell": 8496,
      "##revis": 8497,
      "##rète": 8498,
      "##reinte": 8499,
      "del": 8500,
      "dele": 8501,
      "dead": 8502,
      "##ntu": 8503,
      "##ntend": 8504,
      "##nting": 8505,
      "##ntington": 8506,
      "##eri": 8507,
      "##erte": 8508,
      "##erla": 8509,
      "##én": 8510,
      "##éni": 8511,
      "##émor": 8512,
      "##édois": 8513,
      "##ona": 8514,
      "##onde": 8515,
      "##esse": 8516,
      "##essionn": 8517,
      "##essss": 8518,
      "jei": 8519,
      "jere": 8520,
      "jenny": 8521,
      "##enos": 8522,
      "##enger": 8523,
      "##enance": 8524,
      "##ensible": 8525,
      "##eneeeeeeee": 8526,
      "##leans": 8527,
      "##levé": 8528,
      "##lease": 8529,
      "queu": 8530,
      "quant": 8531,
      "quar": 8532,
      "quad": 8533,
      "quator": 8534,
      "quads": 8535,
      "##ourkill": 8536,
      "##isser": 8537,
      "##isha": 8538,
      "pav": 8539,
      "pad": 8540,
      "paci": 8541,
      "pala": 8542,
      "pape": 8543,
      "pât": 8544,
      "patte": 8545,
      "papi": 8546,
      "path": 8547,
      "pages": 8548,
      "patch": 8549,
      "panique": 8550,
      "paula": 8551,
      "patiner": 8552,
      "##meu": 8553,
      "##mets": 8554,
      "##metro": 8555,
      "##anas": 8556,
      "##anun": 8557,
      "##anna": 8558,
      "##annique": 8559,
      "##anciers": 8560,
      "unités": 8561,
      "##oient": 8562,
      "##oilers": 8563,
      "##eute": 8564,
      "escro": 8565,
      "las": 8566,
      "lara": 8567,
      "laser": 8568,
      "lata": 8569,
      "lampe": 8570,
      "laker": 8571,
      "laquais": 8572,
      "leon": 8573,
      "lead": 8574,
      "lebron": 8575,
      "##ousti": 8576,
      "##ousse": 8577,
      "##ted": 8578,
      "##tere": 8579,
      "##teaux": 8580,
      "##tella": 8581,
      "sum": 8582,
      "sub": 8583,
      "sure": 8584,
      "suuu": 8585,
      "sucé": 8586,
      "sucks": 8587,
      "summer": 8588,
      "suède": 8589,
      "suédois": 8590,
      "passes": 8591,
      "esti": 8592,
      "aig": 8593,
      "aigle": 8594,
      "aîné": 8595,
      "ence": 8596,
      "enra": 8597,
      "enchant": 8598,
      "##tig": 8599,
      "##tiers": 8600,
      "##tiaux": 8601,
      "##tivis": 8602,
      "##titions": 8603,
      "##usées": 8604,
      "##vel": 8605,
      "##veland": 8606,
      "eth": 8607,
      "##quis": 8608,
      "##quin": 8609,
      "##quie": 8610,
      "##quage": 8611,
      "##quence": 8612,
      "##orant": 8613,
      "##oray": 8614,
      "##orid": 8615,
      "##ortement": 8616,
      "##orgie": 8617,
      "pourri": 8618,
      "pourrez": 8619,
      "pourrons": 8620,
      "ém": 8621,
      "étin": 8622,
      "éph": 8623,
      "édu": 8624,
      "érable": 8625,
      "may": 8626,
      "max": 8627,
      "mall": 8628,
      "maui": 8629,
      "maaa": 8630,
      "mafi": 8631,
      "mâché": 8632,
      "mahi": 8633,
      "##ini": 8634,
      "##inaires": 8635,
      "cents": 8636,
      "ceint": 8637,
      "cèdre": 8638,
      "auck": 8639,
      "aurons": 8640,
      "auda": 8641,
      "auront": 8642,
      "auraient": 8643,
      "nee": 8644,
      "nej": 8645,
      "neal": 8646,
      "never": 8647,
      "netball": 8648,
      "neveux": 8649,
      "need": 8650,
      "##iton": 8651,
      "##itch": 8652,
      "##itable": 8653,
      "##itures": 8654,
      "mem": 8655,
      "megh": 8656,
      "meeee": 8657,
      "mexi": 8658,
      "metall": 8659,
      "##omé": 8660,
      "##omad": 8661,
      "##omphe": 8662,
      "chit": 8663,
      "chav": 8664,
      "chac": 8665,
      "chow": 8666,
      "chances": 8667,
      "chiller": 8668,
      "chili": 8669,
      "chasser": 8670,
      "##llot": 8671,
      "##llaires": 8672,
      "lessi": 8673,
      "##aro": 8674,
      "##ary": 8675,
      "##arin": 8676,
      "##arch": 8677,
      "##araison": 8678,
      "##arca": 8679,
      "##see": 8680,
      "##selle": 8681,
      "tr3": 8682,
      "trag": 8683,
      "true": 8684,
      "trace": 8685,
      "traque": 8686,
      "traction": 8687,
      "##nement": 8688,
      "##nets": 8689,
      "ilove": 8690,
      "##trer": 8691,
      "##treinte": 8692,
      "rech": 8693,
      "rebe": 8694,
      "redres": 8695,
      "remor": 8696,
      "remè": 8697,
      "requête": 8698,
      "relancer": 8699,
      "##iences": 8700,
      "##iendrais": 8701,
      "##aucher": 8702,
      "##chi": 8703,
      "##chage": 8704,
      "##chiez": 8705,
      "##chigan": 8706,
      "##delph": 8707,
      "plo": 8708,
      "plages": 8709,
      "plurk": 8710,
      "dév": 8711,
      "déte": 8712,
      "dément": 8713,
      "déco": 8714,
      "défin": 8715,
      "démar": 8716,
      "dévo": 8717,
      "##mpa": 8718,
      "##mpin": 8719,
      "seo": 8720,
      "seb": 8721,
      "sein": 8722,
      "seph": 8723,
      "##ols": 8724,
      "##olue": 8725,
      "étendre": 8726,
      "étonne": 8727,
      "étang": 8728,
      "têtes": 8729,
      "tetris": 8730,
      "##ceau": 8731,
      "##cère": 8732,
      "##cente": 8733,
      "##celone": 8734,
      "##roversé": 8735,
      "##cia": 8736,
      "##cious": 8737,
      "##cite": 8738,
      "##ciée": 8739,
      "##ciaux": 8740,
      "##cipit": 8741,
      "##cieuses": 8742,
      "##ril": 8743,
      "##ries": 8744,
      "##rigé": 8745,
      "##rific": 8746,
      "##ription": 8747,
      "touche": 8748,
      "surg": 8749,
      "surveille": 8750,
      "descente": 8751,
      "simps": 8752,
      "sippin": 8753,
      "sirop": 8754,
      "##avros": 8755,
      "##avist": 8756,
      "paral": 8757,
      "parles": 8758,
      "partent": 8759,
      "parap": 8760,
      "parlons": 8761,
      "##irs": 8762,
      "##als": 8763,
      "##alo": 8764,
      "##alore": 8765,
      "##alités": 8766,
      "##alogue": 8767,
      "journaux": 8768,
      "##terrir": 8769,
      "danseur": 8770,
      "duh": 8771,
      "durée": 8772,
      "##ragés": 8773,
      "avis": 8774,
      "aveu": 8775,
      "avert": 8776,
      "avéré": 8777,
      "avocat": 8778,
      "avril": 8779,
      "##eel": 8780,
      "##eeeneeeeeeee": 8781,
      "##sim": 8782,
      "##sionné": 8783,
      "##sibles": 8784,
      "moin": 8785,
      "##rénal": 8786,
      "##amas": 8787,
      "##amine": 8788,
      "##amond": 8789,
      "##amourkill": 8790,
      "##amarca": 8791,
      "##osoph": 8792,
      "##lage": 8793,
      "##laré": 8794,
      "##lacement": 8795,
      "##layer": 8796,
      "amc": 8797,
      "amant": 8798,
      "##ata": 8799,
      "##atus": 8800,
      "##atures": 8801,
      "##atoires": 8802,
      "biens": 8803,
      "##otant": 8804,
      "##otch": 8805,
      "traver": 8806,
      "maïs": 8807,
      "maillot": 8808,
      "##raine": 8809,
      "##rainte": 8810,
      "##rairie": 8811,
      "##raight": 8812,
      "##raîch": 8813,
      "##andre": 8814,
      "##andand": 8815,
      "##andlo": 8816,
      "##andale": 8817,
      "##atible": 8818,
      "##ilités": 8819,
      "manu": 8820,
      "manille": 8821,
      "manche": 8822,
      "mangent": 8823,
      "mannn": 8824,
      "mangue": 8825,
      "mangui": 8826,
      "manset": 8827,
      "travaill": 8828,
      "##asha": 8829,
      "##assss": 8830,
      "##ahs": 8831,
      "##ensens": 8832,
      "maintes": 8833,
      "maintenance": 8834,
      "réal": 8835,
      "rédi": 8836,
      "révé": 8837,
      "récon": 8838,
      "réno": 8839,
      "référence": 8840,
      "réaction": 8841,
      "réflé": 8842,
      "réchauff": 8843,
      "régents": 8844,
      "dia": 8845,
      "diam": 8846,
      "divis": 8847,
      "dîne": 8848,
      "diables": 8849,
      "diaz": 8850,
      "diddy": 8851,
      "##nier": 8852,
      "##nies": 8853,
      "##niors": 8854,
      "##niaque": 8855,
      "just": 8856,
      "justif": 8857,
      "prov": 8858,
      "prover": 8859,
      "proxim": 8860,
      "project": 8861,
      "merry": 8862,
      "##ership": 8863,
      "##dire": 8864,
      "##diest": 8865,
      "##diamond": 8866,
      "##côte": 8867,
      "messe": 8868,
      "faits": 8869,
      "tuy": 8870,
      "tube": 8871,
      "tumbl": 8872,
      "tunnel": 8873,
      "##pei": 8874,
      "##pere": 8875,
      "##peau": 8876,
      "##peare": 8877,
      "##pedia": 8878,
      "huître": 8879,
      "##aya": 8880,
      "##aca": 8881,
      "##acité": 8882,
      "beer": 8883,
      "bebe": 8884,
      "votes": 8885,
      "##ched": 8886,
      "##chelore": 8887,
      "ana": 8888,
      "anna": 8889,
      "annnn": 8890,
      "anahe": 8891,
      "analyse": 8892,
      "ananas": 8893,
      "##agent": 8894,
      "##onna": 8895,
      "##onnaire": 8896,
      "!!!;": 8897,
      "##ligne": 8898,
      "##light": 8899,
      "##ligés": 8900,
      "##ttr": 8901,
      "##tta": 8902,
      "ing": 8903,
      "ingé": 8904,
      "infin": 8905,
      "inno": 8906,
      "##ural": 8907,
      "##urance": 8908,
      "##ursion": 8909,
      "aimerez": 8910,
      "regroup": 8911,
      "exag": 8912,
      "extr": 8913,
      "excite": 8914,
      "lolo": 8915,
      "lololol": 8916,
      "armée": 8917,
      "arranger": 8918,
      "arvo": 8919,
      "arsen": 8920,
      "arkansas": 8921,
      "##ttement": 8922,
      "devan": 8923,
      "devra": 8924,
      "devrai": 8925,
      "devenant": 8926,
      "deviez": 8927,
      "devrez": 8928,
      "devaient": 8929,
      "##agles": 8930,
      "##agnes": 8931,
      "##agréable": 8932,
      "##agirl": 8933,
      "demie": 8934,
      "mia": 8935,
      "mix": 8936,
      "mimis": 8937,
      "mickey": 8938,
      "michigan": 8939,
      "##ople": 8940,
      "vaisselle": 8941,
      "appt": 8942,
      "appart": 8943,
      "approuv": 8944,
      "serrures": 8945,
      "peach": 8946,
      "pepsi": 8947,
      "pelouse": 8948,
      "ampoule": 8949,
      "lion": 8950,
      "liée": 8951,
      "liam": 8952,
      "liver": 8953,
      "liqui": 8954,
      "life": 8955,
      "libres": 8956,
      "libby": 8957,
      "licence": 8958,
      "prêtes": 8959,
      "pretty": 8960,
      "coz": 8961,
      "coder": 8962,
      "coca": 8963,
      "cône": 8964,
      "coach": 8965,
      "cobra": 8966,
      "coquille": 8967,
      "codage": 8968,
      "ask": 8969,
      "aspect": 8970,
      "ascens": 8971,
      "vap": 8972,
      "##tina": 8973,
      "##tines": 8974,
      "##tinson": 8975,
      "twitterrific": 8976,
      "mals": 8977,
      "maltrait": 8978,
      "malgré": 8979,
      "##illons": 8980,
      "##cut": 8981,
      "##cum": 8982,
      "##culs": 8983,
      "##ientation": 8984,
      "##érir": 8985,
      "tousser": 8986,
      "hahha": 8987,
      "company": 8988,
      "comptab": 8989,
      "compenser": 8990,
      "complets": 8991,
      "comportement": 8992,
      "comparaison": 8993,
      "compatible": 8994,
      "entiers": 8995,
      "entières": 8996,
      "géante": 8997,
      "génie": 8998,
      "géographie": 8999,
      "géorgie": 9000,
      "retenir": 9001,
      "retrait": 9002,
      "retrouve": 9003,
      "viv": 9004,
      "vif": 9005,
      "vib": 9006,
      "vive": 9007,
      "viande": 9008,
      "vivez": 9009,
      "vider": 9010,
      "vivi": 9011,
      "vicks": 9012,
      "vivement": 9013,
      "vibra": 9014,
      "vivais": 9015,
      "tropic": 9016,
      "écoss": 9017,
      "écrevis": 9018,
      "heureuses": 9019,
      "tweetie": 9020,
      "tweeting": 9021,
      "tweeties": 9022,
      "derby": 9023,
      "besties": 9024,
      "finance": 9025,
      "financ": 9026,
      "here": 9027,
      "heather": 9028,
      "hebd": 9029,
      "précip": 9030,
      "prédictif": 9031,
      "préavis": 9032,
      "président": 9033,
      "prénom": 9034,
      "précipit": 9035,
      "##utup": 9036,
      "stl": 9037,
      "stom": 9038,
      "stra": 9039,
      "stable": 9040,
      "station": 9041,
      "stade": 9042,
      "stap": 9043,
      "stéré": 9044,
      "stavros": 9045,
      "straight": 9046,
      "jammies": 9047,
      "##phop": 9048,
      "##phique": 9049,
      "##phère": 9050,
      "##ôture": 9051,
      "moz": 9052,
      "mog": 9053,
      "more": 9054,
      "moch": 9055,
      "modé": 9056,
      "mods": 9057,
      "motiv": 9058,
      "caf": 9059,
      "cad": 9060,
      "cape": 9061,
      "caché": 9062,
      "causé": 9063,
      "##cture": 9064,
      "##ctué": 9065,
      "obs": 9066,
      "saf": 9067,
      "salles": 9068,
      "sadie": 9069,
      "sachiez": 9070,
      "restes": 9071,
      "respe": 9072,
      "désord": 9073,
      "désinstaller": 9074,
      "désagréable": 9075,
      "saisir": 9076,
      "saisons": 9077,
      "add": 9078,
      "admin": 9079,
      "adoles": 9080,
      "adhé": 9081,
      "admir": 9082,
      "adrénal": 9083,
      "conver": 9084,
      "concep": 9085,
      "condition": 9086,
      "conditions": 9087,
      "convention": 9088,
      "conférences": 9089,
      "##mmaire": 9090,
      "##mmation": 9091,
      "espere": 9092,
      "sod": 9093,
      "sow": 9094,
      "sobre": 9095,
      "sovi": 9096,
      "soja": 9097,
      "souligne": 9098,
      "téléviseur": 9099,
      "apt": 9100,
      "api": 9101,
      "apais": 9102,
      "##loge": 9103,
      "contes": 9104,
      "contri": 9105,
      "contenant": 9106,
      "contex": 9107,
      "controversé": 9108,
      "contrainte": 9109,
      "aimerait": 9110,
      "aimerions": 9111,
      "##gueur": 9112,
      "##gumes": 9113,
      "accent": 9114,
      "accents": 9115,
      "activis": 9116,
      "pensons": 9117,
      "pensiez": 9118,
      "phpl": 9119,
      "phéni": 9120,
      "seuls": 9121,
      "##unch": 9122,
      "##unny": 9123,
      "perdent": 9124,
      "pertur": 9125,
      "marc": 9126,
      "marie": 9127,
      "marco": 9128,
      "marquer": 9129,
      "marchés": 9130,
      "margare": 9131,
      "marguer": 9132,
      "martiaux": 9133,
      "havent": 9134,
      "retournés": 9135,
      "sortes": 9136,
      "##ésie": 9137,
      "##ésir": 9138,
      "frou": 9139,
      "fran": 9140,
      "frit": 9141,
      "frank": 9142,
      "frits": 9143,
      "franch": 9144,
      "thom": 9145,
      "thurs": 9146,
      "think": 9147,
      "ditto": 9148,
      "##mineux": 9149,
      "allie": 9150,
      "alliez": 9151,
      "allaite": 9152,
      "allumer": 9153,
      "doucher": 9154,
      "doubl": 9155,
      "terri": 9156,
      "terras": 9157,
      "terry": 9158,
      "manquait": 9159,
      "manquée": 9160,
      "courais": 9161,
      "courte": 9162,
      "couronne": 9163,
      "courbe": 9164,
      "feb": 9165,
      "##umes": 9166,
      "##umdog": 9167,
      "détest": 9168,
      "détester": 9169,
      "##pides": 9170,
      "intense": 9171,
      "intros": 9172,
      "intoxication": 9173,
      "##bet": 9174,
      "##bec": 9175,
      "##bees": 9176,
      "##bear": 9177,
      "##beta": 9178,
      "filmer": 9179,
      "filip": 9180,
      "filtrer": 9181,
      "view": 9182,
      "chaos": 9183,
      "chaps": 9184,
      "détestez": 9185,
      "détestent": 9186,
      "##mania": 9187,
      "enfuit": 9188,
      "enfance": 9189,
      "##ices": 9190,
      "##icace": 9191,
      "##iclou": 9192,
      "noki": 9193,
      "##000": 9194,
      "rever": 9195,
      "revenant": 9196,
      "reveniez": 9197,
      "shw": 9198,
      "sher": 9199,
      "shin": 9200,
      "shoo": 9201,
      "shite": 9202,
      "shorts": 9203,
      "shits": 9204,
      "shaun": 9205,
      "shutup": 9206,
      "jouait": 9207,
      "jouez": 9208,
      "jouet": 9209,
      "jouissant": 9210,
      "rad": 9211,
      "rare": 9212,
      "ralent": 9213,
      "fatiguée": 9214,
      "please": 9215,
      "##mberla": 9216,
      "##perons": 9217,
      "implément": 9218,
      "impliqué": 9219,
      "improm": 9220,
      "##encer": 9221,
      "orientation": 9222,
      "commune": 9223,
      "commémor": 9224,
      "réveil": 9225,
      "abc": 9226,
      "abusez": 9227,
      "missions": 9228,
      "lits": 9229,
      "awwwwww": 9230,
      "cesse": 9231,
      "cesser": 9232,
      "coût": 9233,
      "couler": 9234,
      "coûter": 9235,
      "coureur": 9236,
      "couette": 9237,
      "méd": 9238,
      "mérit": 9239,
      "méga": 9240,
      "savons": 9241,
      "saveur": 9242,
      "savane": 9243,
      "faché": 9244,
      "laissée": 9245,
      "support": 9246,
      "suppression": 9247,
      "carre": 9248,
      "carrière": 9249,
      "carlos": 9250,
      "caroline": 9251,
      "bass": 9252,
      "basé": 9253,
      "basse": 9254,
      "sales": 9255,
      "salsa": 9256,
      "##gnet": 9257,
      "##ado": 9258,
      "##admin": 9259,
      "..:": 9260,
      "sûrs": 9261,
      "##renage": 9262,
      "rô": 9263,
      "rod": 9264,
      "rove": 9265,
      "roche": 9266,
      "rocher": 9267,
      "rochers": 9268,
      "##ogo": 9269,
      "gras": 9270,
      "gracieux": 9271,
      "grammaire": 9272,
      "utiles": 9273,
      "vision": 9274,
      "visages": 9275,
[...]
